{
  "version": "1.0",
  "truncation": null,
  "padding": null,
  "added_tokens": [
    {
      "id": 0,
      "content": "<|endoftext|>",
      "single_word": false,
      "lstrip": false,
      "rstrip": false,
      "normalized": false,
      "special": true
    }
  ],
  "normalizer": {
    "type": "NFKC"
  },
  "pre_tokenizer": {
    "type": "ByteLevel",
    "add_prefix_space": true,
    "trim_offsets": true,
    "use_regex": true
  },
  "post_processor": {
    "type": "ByteLevel",
    "add_prefix_space": true,
    "trim_offsets": true,
    "use_regex": true
  },
  "decoder": {
    "type": "ByteLevel",
    "add_prefix_space": true,
    "trim_offsets": true,
    "use_regex": true
  },
  "model": {
    "type": "BPE",
    "dropout": null,
    "unk_token": null,
    "continuing_subword_prefix": null,
    "end_of_word_suffix": null,
    "fuse_unk": false,
    "byte_fallback": false,
    "vocab": {
      "<|endoftext|>": 0,
      "!": 1,
      "\"": 2,
      "#": 3,
      "$": 4,
      "%": 5,
      "&": 6,
      "'": 7,
      "(": 8,
      ")": 9,
      "*": 10,
      "+": 11,
      ",": 12,
      "-": 13,
      ".": 14,
      "/": 15,
      "0": 16,
      "1": 17,
      "2": 18,
      "3": 19,
      "4": 20,
      "5": 21,
      "6": 22,
      "7": 23,
      "8": 24,
      "9": 25,
      ":": 26,
      ";": 27,
      "<": 28,
      "=": 29,
      ">": 30,
      "?": 31,
      "@": 32,
      "A": 33,
      "B": 34,
      "C": 35,
      "D": 36,
      "E": 37,
      "F": 38,
      "G": 39,
      "H": 40,
      "I": 41,
      "J": 42,
      "K": 43,
      "L": 44,
      "M": 45,
      "N": 46,
      "O": 47,
      "P": 48,
      "Q": 49,
      "R": 50,
      "S": 51,
      "T": 52,
      "U": 53,
      "V": 54,
      "W": 55,
      "X": 56,
      "Y": 57,
      "Z": 58,
      "[": 59,
      "\\": 60,
      "]": 61,
      "_": 62,
      "`": 63,
      "a": 64,
      "b": 65,
      "c": 66,
      "d": 67,
      "e": 68,
      "f": 69,
      "g": 70,
      "h": 71,
      "i": 72,
      "j": 73,
      "k": 74,
      "l": 75,
      "m": 76,
      "n": 77,
      "o": 78,
      "p": 79,
      "q": 80,
      "r": 81,
      "s": 82,
      "t": 83,
      "u": 84,
      "v": 85,
      "w": 86,
      "x": 87,
      "y": 88,
      "z": 89,
      "{": 90,
      "|": 91,
      "}": 92,
      "~": 93,
      "¡": 94,
      "¢": 95,
      "£": 96,
      "¤": 97,
      "¥": 98,
      "¦": 99,
      "§": 100,
      "¨": 101,
      "©": 102,
      "ª": 103,
      "«": 104,
      "¬": 105,
      "®": 106,
      "¯": 107,
      "°": 108,
      "±": 109,
      "³": 110,
      "´": 111,
      "µ": 112,
      "¶": 113,
      "·": 114,
      "¸": 115,
      "¹": 116,
      "º": 117,
      "»": 118,
      "½": 119,
      "¾": 120,
      "¿": 121,
      "Â": 122,
      "Ã": 123,
      "Ä": 124,
      "Å": 125,
      "É": 126,
      "Ê": 127,
      "Ì": 128,
      "Ñ": 129,
      "Ò": 130,
      "á": 131,
      "â": 132,
      "ã": 133,
      "ä": 134,
      "å": 135,
      "æ": 136,
      "ç": 137,
      "è": 138,
      "é": 139,
      "î": 140,
      "ï": 141,
      "ð": 142,
      "ĉ": 143,
      "Ċ": 144,
      "Ġ": 145,
      "Ģ": 146,
      "ģ": 147,
      "Ĥ": 148,
      "ĥ": 149,
      "Ħ": 150,
      "ħ": 151,
      "Ĩ": 152,
      "ĩ": 153,
      "Ī": 154,
      "ī": 155,
      "Ĭ": 156,
      "ĭ": 157,
      "Į": 158,
      "į": 159,
      "İ": 160,
      "ı": 161,
      "Ĳ": 162,
      "ĳ": 163,
      "Ĵ": 164,
      "ĵ": 165,
      "Ķ": 166,
      "ķ": 167,
      "ĸ": 168,
      "ĺ": 169,
      "Ļ": 170,
      "ļ": 171,
      "Ľ": 172,
      "ľ": 173,
      "Ŀ": 174,
      "ŀ": 175,
      "Ł": 176,
      "ł": 177,
      "Ń": 178,
      "Ġt": 179,
      "he": 180,
      "Ġa": 181,
      "Ġs": 182,
      "nd": 183,
      "Ġw": 184,
      "Ġthe": 185,
      "ed": 186,
      "Ġb": 187,
      "Ġto": 188,
      "Ġand": 189,
      "ĠT": 190,
      "Ġh": 191,
      "Ġf": 192,
      "in": 193,
      "Ġwa": 194,
      "re": 195,
      "it": 196,
      "ou": 197,
      "Ġl": 198,
      "Ġd": 199,
      "Ġc": 200,
      "Ġp": 201,
      "ĠThe": 202,
      "ay": 203,
      "Ġm": 204,
      "er": 205,
      "Ġwas": 206,
      "om": 207,
      "Ġhe": 208,
      "is": 209,
      "ar": 210,
      "Ġn": 211,
      "im": 212,
      "on": 213,
      "Ġsa": 214,
      "id": 215,
      "ll": 216,
      "ĠS": 217,
      "Ġha": 218,
      "Ġg": 219,
      "at": 220,
      "ing": 221,
      "ot": 222,
      "en": 223,
      "an": 224,
      "le": 225,
      "or": 226,
      "end": 227,
      "Ġ\"": 228,
      "ir": 229,
      "ĠH": 230,
      "of": 231,
      "am": 232,
      "ĠThey": 233,
      "et": 234,
      "Ġit": 235,
      "Ġth": 236,
      "ig": 237,
      "ĠHe": 238,
      "Ġin": 239,
      "il": 240,
      "Ġpl": 241,
      "ow": 242,
      "ver": 243,
      "ri": 244,
      "ut": 245,
      "Ġbe": 246,
      "Ġu": 247,
      "Ġsaid": 248,
      "Ġplay": 249,
      "ĠO": 250,
      "ith": 251,
      "ĠTim": 252,
      "Ġday": 253,
      "Ġwith": 254,
      "pp": 255,
      "ĠOn": 256,
      "Ġy": 257,
      "oo": 258,
      "ked": 259,
      "Ġr": 260,
      "ĠI": 261,
      "ĠShe": 262,
      "Ġher": 263,
      "ex": 264,
      "ce": 265,
      "ld": 266,
      "Ġhis": 267,
      "Ġst": 268,
      "ke": 269,
      "ĠL": 270,
      "Ġbig": 271,
      "nt": 272,
      "ck": 273,
      "Ġyou": 274,
      "very": 275,
      "st": 276,
      "ve": 277,
      "ĠB": 278,
      "Ġon": 279,
      "un": 280,
      "Ġhapp": 281,
      "riend": 282,
      "Ġfriend": 283,
      "all": 284,
      "ily": 285,
      "ext": 286,
      "ĠM": 287,
      "Ġthey": 288,
      "oft": 289,
      "Ġwe": 290,
      "Ġhad": 291,
      "Ġnot": 292,
      "Ġli": 293,
      "Ġup": 294,
      "her": 295,
      "Ġwant": 296,
      "Ġof": 297,
      "ad": 298,
      "itt": 299,
      "Ġ<": 300,
      "|>": 301,
      "endoft": 302,
      "Ġ<|": 303,
      "endoftext": 304,
      "se": 305,
      "Ġdo": 306,
      "Ġe": 307,
      "Ġhappy": 308,
      "ent": 309,
      "Ġvery": 310,
      "es": 311,
      "Ġthat": 312,
      "Ġsaw": 313,
      "ĠLily": 314,
      "ĠOne": 315,
      "'s": 316,
      "ĠA": 317,
      "ould": 318,
      "Ġmom": 319,
      "Ġfor": 320,
      "Ġsh": 321,
      "ittle": 322,
      "Ġlittle": 323,
      "ĠTom": 324,
      "Ġshe": 325,
      "ch": 326,
      "ime": 327,
      "Ġnam": 328,
      ".\"": 329,
      "Ġtime": 330,
      "Ġk": 331,
      "ound": 332,
      "Ġso": 333,
      "Ġthere": 334,
      "Ġnamed": 335,
      "Ġsm": 336,
      "Ġbo": 337,
      "Ġwere": 338,
      "Ġne": 339,
      "Ġwanted": 340,
      "Ġbut": 341,
      "out": 342,
      "Ġfriends": 343,
      "ved": 344,
      "!\"": 345,
      "ht": 346,
      "ird": 347,
      "el": 348,
      "Ġbird": 349,
      "al": 350,
      "Ġan": 351,
      "ake": 352,
      "ĠIt": 353,
      "Ġtoo": 354,
      "ome": 355,
      "ug": 356,
      "ĠĊ": 357,
      "ide": 358,
      "Ġwent": 359,
      "Ġwh": 360,
      "Ġhel": 361,
      "ĠOnce": 362,
      "Ġis": 363,
      "Ġall": 364,
      "Ġhelp": 365,
      "ue": 366,
      "Ġloo": 367,
      "Ġlo": 368,
      "ter": 369,
      "Ġupon": 370,
      "ry": 371,
      "ore": 372,
      "ind": 373,
      "Ġfun": 374,
      "get": 375,
      "Ġtoy": 376,
      "ill": 377,
      "ame": 378,
      "Ġas": 379,
      "Ġat": 380,
      "ra": 381,
      "Ġj": 382,
      "Ġdid": 383,
      "gether": 384,
      "Ġre": 385,
      "ur": 386,
      "Ġo": 387,
      "Ġse": 388,
      "Ġtogether": 389,
      "ack": 390,
      "Ġcat": 391,
      "ly": 392,
      "Ġtre": 393,
      "ood": 394,
      "ic": 395,
      "ted": 396,
      "Ġdog": 397,
      "Ġcould": 398,
      "Ġcan": 399,
      "Ġtheir": 400,
      "ard": 401,
      "ec": 402,
      "ark": 403,
      "Ġgir": 404,
      "Ġplayed": 405,
      "Ġhim": 406,
      "Ġball": 407,
      "?\"": 408,
      "Ġgirl": 409,
      "Ġro": 410,
      "way": 411,
      "Ġgo": 412,
      "hed": 413,
      "my": 414,
      "Ġare": 415,
      "Ġout": 416,
      "Ġle": 417,
      "Ġfr": 418,
      "ain": 419,
      "ĠBut": 420,
      "hen": 421,
      "Ġkn": 422,
      "Ġthem": 423,
      "um": 424,
      "'t": 425,
      "ax": 426,
      "Ġsad": 427,
      "ĠW": 428,
      "ĠSue": 429,
      "ul": 430,
      "Ġboy": 431,
      "Ġtree": 432,
      "other": 433,
      "Ġhave": 434,
      "Ġman": 435,
      "ĠMax": 436,
      "Ġcl": 437,
      "Ġloved": 438,
      "Ġlooked": 439,
      "oug": 440,
      "Ġfound": 441,
      "Ġsp": 442,
      "Ġstar": 443,
      "one": 444,
      "hing": 445,
      "Ġsc": 446,
      "Ġback": 447,
      "own": 448,
      "ĠBen": 449,
      "are": 450,
      "Ġlike": 451,
      "ful": 452,
      "side": 453,
      "Ġme": 454,
      "Ġbec": 455,
      "ĠSam": 456,
      "Ġpark": 457,
      "ight": 458,
      "ong": 459,
      "Ġcar": 460,
      "ĠJ": 461,
      "op": 462,
      "elt": 463,
      "Ġliked": 464,
      "Ġwould": 465,
      "Ġmake": 466,
      "round": 467,
      "Ġla": 468,
      "Ġfa": 469,
      "Ġfelt": 470,
      "You": 471,
      "ell": 472,
      "Ġsee": 473,
      "omet": 474,
      "Ġasked": 475,
      "ag": 476,
      "Ġnew": 477,
      "Ġno": 478,
      "ice": 479,
      "ouse": 480,
      "Ġstarted": 481,
      "ared": 482,
      "Ġcame": 483,
      "Ġal": 484,
      "Ġother": 485,
      "ought": 486,
      "iled": 487,
      "ĠF": 488,
      "Ġsomet": 489,
      "Ġag": 490,
      "Ġgood": 491,
      "Ġsmall": 492,
      "ss": 493,
      "Ġbr": 494,
      "Ġsmiled": 495,
      "Ġsay": 496,
      "ried": 497,
      "ade": 498,
      "ĠSp": 499,
      "ings": 500,
      "ob": 501,
      "Ġwor": 502,
      "ĠSpot": 503,
      "Ġfind": 504,
      "ia": 505,
      "Ġaway": 506,
      "ty": 507,
      "Ġput": 508,
      "Ġex": 509,
      "Ġwhat": 510,
      "Ġsomething": 511,
      "Ġfrom": 512,
      "Ġmade": 513,
      "Ġthought": 514,
      "ened": 515,
      "Ġhome": 516,
      "Ġplaying": 517,
      "Ġco": 518,
      "ook": 519,
      "Ġevery": 520,
      "Ġwal": 521,
      "Ġmu": 522,
      "uc": 523,
      "ach": 524,
      "arn": 525,
      "Ġran": 526,
      "ile": 527,
      "ie": 528,
      "ĠMia": 529,
      "ave": 530,
      "Ġagain": 531,
      "Ġsome": 532,
      "Ġlaug": 533,
      "dd": 534,
      "Ġhouse": 535,
      "Ġdown": 536,
      "Ġfl": 537,
      "king": 538,
      "Ġtook": 539,
      "Ġscared": 540,
      "Ġpr": 541,
      "ny": 542,
      "ure": 543,
      "Ġtoys": 544,
      "Ġlearn": 545,
      "ĠYou": 546,
      "if": 547,
      "Ġwill": 548,
      "Ġbox": 549,
      "ick": 550,
      "ret": 551,
      "ab": 552,
      "ep": 553,
      "Ġmy": 554,
      "Ġaround": 555,
      "Ġthings": 556,
      "Ġyour": 557,
      "oud": 558,
      "Ġbl": 559,
      "uck": 560,
      "Ġwhen": 561,
      "ish": 562,
      "Ġlived": 563,
      "Ġfe": 564,
      "Ġthen": 565,
      "Ġsun": 566,
      "as": 567,
      "Ġsw": 568,
      "ĠSo": 569,
      ",\"": 570,
      "ĠMom": 571,
      "Ġch": 572,
      "us": 573,
      "pped": 574,
      "Ġab": 575,
      "ank": 576,
      "Ġget": 577,
      "ucy": 578,
      "ump": 579,
      "Ġlot": 580,
      "ist": 581,
      "ĠLucy": 582,
      "ĠD": 583,
      "oth": 584,
      "ap": 585,
      "Ġtried": 586,
      "Ġknow": 587,
      "Ġsays": 588,
      "Ġgot": 589,
      "ited": 590,
      "Ġwho": 591,
      "Th": 592,
      "Ġkne": 593,
      "ust": 594,
      "Ġmany": 595,
      "ĠBob": 596,
      "nder": 597,
      "Ġint": 598,
      "Ġabout": 599,
      "Ġpret": 600,
      "Ġdec": 601,
      "Ġany": 602,
      "Ġred": 603,
      "ive": 604,
      "Ġknew": 605,
      "ace": 606,
      "ous": 607,
      "Ġmore": 608,
      "ise": 609,
      "Ġv": 610,
      "Ġcare": 611,
      "ally": 612,
      "Ġpic": 613,
      "au": 614,
      "qu": 615,
      "Ġhug": 616,
      "Ġlearned": 617,
      "Ġpo": 618,
      "Ġwater": 619,
      "fter": 620,
      "Ġbecame": 621,
      "Ġbest": 622,
      "ĠAnd": 623,
      "ause": 624,
      "Ġop": 625,
      "Ġgre": 626,
      "ĠE": 627,
      "Ġexc": 628,
      "urp": 629,
      "ways": 630,
      "âĢ": 631,
      "Ġoutside": 632,
      "Ġlaughed": 633,
      "Ġlook": 634,
      "Ġalways": 635,
      "Ġdecid": 636,
      "Ġshow": 637,
      "Ġun": 638,
      "ant": 639,
      "Ġroom": 640,
      "fe": 641,
      "Ġdecided": 642,
      "Ġho": 643,
      "Ġbecause": 644,
      "Ġinto": 645,
      "Ġeat": 646,
      "ite": 647,
      "Ġjump": 648,
      "Ġpe": 649,
      "Ġboth": 650,
      "ers": 651,
      "ĠThen": 652,
      "Ġdad": 653,
      "udd": 654,
      "Ġke": 655,
      "Ġone": 656,
      "ĠWhen": 657,
      "nn": 658,
      "Ġthis": 659,
      "Ġexcited": 660,
      "Ġfast": 661,
      "Ġnice": 662,
      "Ġfeel": 663,
      "Yes": 664,
      "Ġrun": 665,
      "Ġlong": 666,
      "ĠAnn": 667,
      "Ġtold": 668,
      "Ġsk": 669,
      "Ġam": 670,
      "urpr": 671,
      "our": 672,
      "Ġinside": 673,
      "ull": 674,
      "Ġtr": 675,
      "Ġsurpr": 676,
      "Ġmo": 677,
      "ĠHis": 678,
      "ink": 679,
      "Ġpretty": 680,
      "iny": 681,
      "Ġsor": 682,
      "Ġtake": 683,
      "ĠFr": 684,
      "og": 685,
      "ĠC": 686,
      "Ġsl": 687,
      "Ġeach": 688,
      "Ġgave": 689,
      "hat": 690,
      "Ġmuch": 691,
      "Ġgra": 692,
      "lew": 693,
      "Ġrock": 694,
      "Ġhow": 695,
      "Ġstr": 696,
      "ara": 697,
      "imal": 698,
      "Ġanimal": 699,
      "ged": 700,
      "Ġneed": 701,
      "Ġthan": 702,
      "ĠAnna": 703,
      "ĠAmy": 704,
      "ven": 705,
      "etter": 706,
      "Ġtow": 707,
      "Ġor": 708,
      "ĠAs": 709,
      "Ġunder": 710,
      "ess": 711,
      "Ġold": 712,
      "Ġsorry": 713,
      "ge": 714,
      "ised": 715,
      "ro": 716,
      "urt": 717,
      "ĠSara": 718,
      "Ġcle": 719,
      "Ġfish": 720,
      "Ġwalked": 721,
      "Ġclo": 722,
      "and": 723,
      "here": 724,
      "Ġbear": 725,
      "ase": 726,
      "ast": 727,
      "Ġhand": 728,
      "urn": 729,
      "ĠWe": 730,
      "Ġkind": 731,
      "Ġhappened": 732,
      "Ġjust": 733,
      "Ġflow": 734,
      "ĠHer": 735,
      "Ġfood": 736,
      "Ġlist": 737,
      "Ġdidn": 738,
      "Ġte": 739,
      "Ġanimals": 740,
      "Ġhig": 741,
      "Ġnear": 742,
      "Ġwat": 743,
      "ĠIn": 744,
      "Ġide": 745,
      "Ġtry": 746,
      "ched": 747,
      "Ġsky": 748,
      "ine": 749,
      "Ġsn": 750,
      "pl": 751,
      "ving": 752,
      "Ġfi": 753,
      "Ġus": 754,
      "ĠFrom": 755,
      "Ġidea": 756,
      "Ġbetter": 757,
      "Ġbug": 758,
      "Ġheard": 759,
      "gry": 760,
      "Ġits": 761,
      "Ġtw": 762,
      "Ġlet": 763,
      "pec": 764,
      "ate": 765,
      "able": 766,
      "ff": 767,
      "Ġen": 768,
      "Ġcareful": 769,
      "Ġshare": 770,
      "Ġif": 771,
      "Thank": 772,
      "Ġfly": 773,
      "Ġstor": 774,
      "ial": 775,
      "Ġflew": 776,
      "more": 777,
      "Ġanymore": 778,
      "Ġspec": 779,
      "Ġspecial": 780,
      "ion": 781,
      "Ġcom": 782,
      "Ġlots": 783,
      "Ġnever": 784,
      "Ġby": 785,
      "lf": 786,
      "ream": 787,
      "Ġdan": 788,
      "Ġbu": 789,
      "Ġfo": 790,
      "Ġwind": 791,
      "Ġdon": 792,
      "ĠEvery": 793,
      "Ġtal": 794,
      "Ġclean": 795,
      "ort": 796,
      "Ġgr": 797,
      "Ġlove": 798,
      "rm": 799,
      "ber": 800,
      "Ġend": 801,
      "ople": 802,
      "Ġeven": 803,
      "Ġmag": 804,
      "ĠK": 805,
      "Ġhard": 806,
      "Ġshiny": 807,
      "udden": 808,
      "Ġfore": 809,
      "Ġover": 810,
      "Ġcake": 811,
      "ak": 812,
      "Ġbook": 813,
      "Ġcol": 814,
      "Ġturn": 815,
      "Ġfam": 816,
      "Ġbad": 817,
      "Ġsafe": 818,
      "Ġafter": 819,
      "ady": 820,
      "uddenly": 821,
      "Ġpeople": 822,
      "Ġproud": 823,
      "Ġsurprised": 824,
      "pected": 825,
      "Let": 826,
      "Ġhigh": 827,
      "Ġcu": 828,
      "Ġhurt": 829,
      "Ġcome": 830,
      "imb": 831,
      "arden": 832,
      "Ġdoor": 833,
      "Ġgarden": 834,
      "bb": 835,
      "Ġground": 836,
      "Ġopened": 837,
      "Ġpicked": 838,
      "Ġloud": 839,
      "Ġclimb": 840,
      "expected": 841,
      "Ġunexpected": 842,
      "hy": 843,
      "Ġgl": 844,
      "Ġche": 845,
      "ild": 846,
      "Ġim": 847,
      "Ġgive": 848,
      "Ġway": 849,
      "ail": 850,
      "'m": 851,
      "Ġthanked": 852,
      "Ġcolor": 853,
      "Ġblue": 854,
      "Ġstill": 855,
      "Ġever": 856,
      "Ġhugged": 857,
      "ĠP": 858,
      "Ġcall": 859,
      "Ġfar": 860,
      "ip": 861,
      "No": 862,
      "Ġoff": 863,
      "Ġmagic": 864,
      "iz": 865,
      "age": 866,
      "ough": 867,
      "ummy": 868,
      "Ġjumped": 869,
      "Ġshould": 870,
      "Ġfamily": 871,
      "Ġpar": 872,
      "ool": 873,
      "Ġkid": 874,
      "Ġsmile": 875,
      "ĠJo": 876,
      "hes": 877,
      "uff": 878,
      "Ġplace": 879,
      "kay": 880,
      "Ġwalk": 881,
      "Ġnow": 882,
      "ct": 883,
      "Ġgreat": 884,
      "em": 885,
      "Ġqu": 886,
      "ĠSuddenly": 887,
      "les": 888,
      "Ġstrong": 889,
      "Ġstay": 890,
      "Ġunt": 891,
      "Ġsto": 892,
      "aut": 893,
      "Ġforest": 894,
      "ture": 895,
      "ane": 896,
      "Ġbra": 897,
      "itty": 898,
      "Ġfrog": 899,
      "Ġbro": 900,
      "Ġuntil": 901,
      "Ġbeaut": 902,
      "dy": 903,
      "Ġsqu": 904,
      "Ġstick": 905,
      "Ġnext": 906,
      "Ġboat": 907,
      "lease": 908,
      "ning": 909,
      "ĠSally": 910,
      "ĠAfter": 911,
      "ĠN": 912,
      "Ġhappily": 913,
      "Ġlisten": 914,
      "aking": 915,
      "Ġkids": 916,
      "Ġtra": 917,
      "ĠKitty": 918,
      "ies": 919,
      "iful": 920,
      "Ġbeautiful": 921,
      "Ġapp": 922,
      "Ġhelped": 923,
      "Ġdra": 924,
      "Ġshowed": 925,
      "Ġclos": 926,
      "be": 927,
      "Ġimp": 928,
      "Ġstory": 929,
      "unny": 930,
      "Ġwhile": 931,
      "Ġtown": 932,
      "rel": 933,
      "pt": 934,
      "Ġrain": 935,
      "ress": 936,
      "Ġpicture": 937,
      "ĠAt": 938,
      "oy": 939,
      "Ġbeing": 940,
      "Ġrem": 941,
      "Ġeveryone": 942,
      "ary": 943,
      "ree": 944,
      "Ġmor": 945,
      "ĠR": 946,
      "Ġhat": 947,
      "Ġcalled": 948,
      "Ġmet": 949,
      "Ġstopped": 950,
      "Ġad": 951,
      "Ġgame": 952,
      "Ġwo": 953,
      "Can": 954,
      "Ġangry": 955,
      "ger": 956,
      "uffy": 957,
      "Ġsoft": 958,
      "ĠFin": 959,
      "Ġopen": 960,
      "Ġtruck": 961,
      "Ġkeep": 962,
      "Ġcry": 963,
      "Ġyummy": 964,
      "ĠTh": 965,
      "Ġlost": 966,
      "Ġbed": 967,
      "ĠLet": 968,
      "Ġwarm": 969,
      "by": 970,
      "vent": 971,
      "ĠJack": 972,
      "Ġbrave": 973,
      "Ġmouse": 974,
      "Ġate": 975,
      "oon": 976,
      "ished": 977,
      "Ġde": 978,
      "It": 979,
      "fore": 980,
      "Ġdoll": 981,
      "so": 982,
      "Ġcouldn": 983,
      "Ġwatch": 984,
      "Ġleave": 985,
      "Ġalso": 986,
      "dded": 987,
      "Ġfell": 988,
      "Ġgreen": 989,
      "Ġface": 990,
      "Ġtwo": 991,
      "ĠFl": 992,
      "gan": 993,
      "iss": 994,
      "Ġflowers": 995,
      "bit": 996,
      "ĠâĢ": 997,
      "ble": 998,
      "Ġnoise": 999,
      "What": 1000,
      "abbit": 1001,
      "irst": 1002,
      "owl": 1003,
      "Ġwhere": 1004,
      "az": 1005,
      "ock": 1006,
      "Ġsoon": 1007,
      "self": 1008,
      "Ġslide": 1009,
      "Ġrabbit": 1010,
      "Ġhole": 1011,
      "ĠG": 1012,
      "Ġbefore": 1013,
      "irrel": 1014,
      "Ġpus": 1015,
      "ired": 1016,
      "Ġsat": 1017,
      "illy": 1018,
      "Ġhear": 1019,
      "ĠFluffy": 1020,
      "Ġuse": 1021,
      "Ġpa": 1022,
      "Ġkept": 1023,
      "Hi": 1024,
      "ĠâĢľ": 1025,
      "âĢĿ": 1026,
      "Ġsquirrel": 1027,
      "ear": 1028,
      "ma": 1029,
      "Ġnodded": 1030,
      "ĠNow": 1031,
      "Ġexpl": 1032,
      "Ġstore": 1033,
      "Ġcook": 1034,
      "Ġhands": 1035,
      "Look": 1036,
      "Ġbirds": 1037,
      "Ġpain": 1038,
      "Ġgoing": 1039,
      "Ġfunny": 1040,
      "Ġhaving": 1041,
      "day": 1042,
      "Ġsing": 1043,
      "aybe": 1044,
      "uch": 1045,
      "Ġey": 1046,
      "aug": 1047,
      "Ġcatch": 1048,
      "aught": 1049,
      "ĠCan": 1050,
      "uit": 1051,
      "Ġyell": 1052,
      "Ġthink": 1053,
      "leep": 1054,
      "Ġcra": 1055,
      "Ġfin": 1056,
      "Ġbre": 1057,
      "Ġfix": 1058,
      "Ġtired": 1059,
      "Ġbunny": 1060,
      "Ġused": 1061,
      "Ġlooking": 1062,
      "Ġbus": 1063,
      "ange": 1064,
      "air": 1065,
      "Ġwork": 1066,
      "Ġwr": 1067,
      "ting": 1068,
      "Ġour": 1069,
      "Ġpull": 1070,
      "We": 1071,
      "Ġthr": 1072,
      "That": 1073,
      "thing": 1074,
      "Ġwait": 1075,
      "Ġkit": 1076,
      "Ġsound": 1077,
      "Ġjo": 1078,
      "Ġhas": 1079,
      "Ġmean": 1080,
      "Ġpond": 1081,
      "ember": 1082,
      "Ġbeh": 1083,
      "Ġdr": 1084,
      "Ġsunny": 1085,
      "led": 1086,
      "Ġothers": 1087,
      "Ġask": 1088,
      "ng": 1089,
      "chen": 1090,
      "Ġkitchen": 1091,
      "Ġtalk": 1092,
      "Ġflo": 1093,
      "Ġdif": 1094,
      "Ġpie": 1095,
      "rew": 1096,
      "Ġhead": 1097,
      "Ġreal": 1098,
      "Ġfirst": 1099,
      "Ġtri": 1100,
      "Ġmommy": 1101,
      "Ġeyes": 1102,
      "ello": 1103,
      "Ġimport": 1104,
      "Hello": 1105,
      "Mom": 1106,
      "Ġfav": 1107,
      "ĠDo": 1108,
      "joy": 1109,
      "Ġz": 1110,
      "Ġremember": 1111,
      "Ġright": 1112,
      "Ġflower": 1113,
      "Ġcon": 1114,
      "Ġmess": 1115,
      "ĠWh": 1116,
      "Ġparty": 1117,
      "Ġcold": 1118,
      "Ġvo": 1119,
      "Ġswe": 1120,
      "ious": 1121,
      "ft": 1122,
      "Ġsand": 1123,
      "ac": 1124,
      "ath": 1125,
      "orn": 1126,
      "Ġrace": 1127,
      "Ġcuri": 1128,
      "imes": 1129,
      "Ġimportant": 1130,
      "Ġduck": 1131,
      "Ġmoral": 1132,
      "Ġshared": 1133,
      "zy": 1134,
      "ount": 1135,
      "Ġice": 1136,
      "Ġokay": 1137,
      "Ġadvent": 1138,
      "Ġworked": 1139,
      "llow": 1140,
      "irt": 1141,
      "Ġenjoy": 1142,
      "Ġdress": 1143,
      "Ġbright": 1144,
      "Ġmaking": 1145,
      "Ġcurious": 1146,
      "Ġown": 1147,
      "ĠDad": 1148,
      "Ġtall": 1149,
      "Ġhop": 1150,
      "reed": 1151,
      "Ġhid": 1152,
      "Ġfavor": 1153,
      "Ġri": 1154,
      "hn": 1155,
      "Ġsleep": 1156,
      "Ġdis": 1157,
      "Ġfavorite": 1158,
      "Wow": 1159,
      "Ġthing": 1160,
      "Ġbegan": 1161,
      "Ġmon": 1162,
      "Ġbag": 1163,
      "Ġhill": 1164,
      "Ġcla": 1165,
      "Don": 1166,
      "Ġdraw": 1167,
      "Ġrest": 1168,
      "Ġhere": 1169,
      "Ġyard": 1170,
      "ĠThis": 1171,
      "Ġtell": 1172,
      "ĠJohn": 1173,
      "ster": 1174,
      "Ġwatched": 1175,
      "que": 1176,
      "Ġfollow": 1177,
      "Ġmove": 1178,
      "Ġbel": 1179,
      "ect": 1180,
      "Ġcut": 1181,
      "Ġnight": 1182,
      "Ġagreed": 1183,
      "Ġpick": 1184,
      "co": 1185,
      "Ġblock": 1186,
      "Ġhun": 1187,
      "aper": 1188,
      "lly": 1189,
      "Ġstop": 1190,
      "Ġbehind": 1191,
      "Ġsurprise": 1192,
      "ied": 1193,
      "Ġsho": 1194,
      "Ġhot": 1195,
      "Ġtable": 1196,
      "Ġgrass": 1197,
      "Ġworry": 1198,
      "Ġdark": 1199,
      "Ġtrees": 1200,
      "Ġvoice": 1201,
      "Ġwalking": 1202,
      "fere": 1203,
      "Ġfloor": 1204,
      "Ġfarm": 1205,
      "Ġlion": 1206,
      "Ġtop": 1207,
      "Ġdiffere": 1208,
      "Ġplease": 1209,
      "ĠThat": 1210,
      "ĠMr": 1211,
      "Ġru": 1212,
      "Ġsong": 1213,
      "ĠBobo": 1214,
      "Ġbutter": 1215,
      "Ġtail": 1216,
      "Ġsweet": 1217,
      "Ġshout": 1218,
      "Ġcolors": 1219,
      "Ġread": 1220,
      "Ġlady": 1221,
      "Ġforg": 1222,
      "isy": 1223,
      "ĠJane": 1224,
      "Ġleaves": 1225,
      "Ġcloser": 1226,
      "ign": 1227,
      "Ġcars": 1228,
      "ĠTimmy": 1229,
      "Ġturned": 1230,
      "Ġneeded": 1231,
      "Ġtast": 1232,
      "Why": 1233,
      "aring": 1234,
      "Ġwood": 1235,
      "Ġcried": 1236,
      "Ġdifferent": 1237,
      "Ġlaugh": 1238,
      "Ġdel": 1239,
      "Ġpiece": 1240,
      "âĢĻ": 1241,
      "ered": 1242,
      "Ġroll": 1243,
      "Ġadventure": 1244,
      "Ġfire": 1245,
      "Ġdoes": 1246,
      "ike": 1247,
      "Ġcr": 1248,
      "Ġhungry": 1249,
      "Ġhair": 1250,
      "Ġpaper": 1251,
      "Ġfeeling": 1252,
      "Ġyellow": 1253,
      "Ġfull": 1254,
      "bo": 1255,
      "Ġprin": 1256,
      "Ġtouch": 1257,
      "Ġwet": 1258,
      "Ġfriendly": 1259,
      "Ġper": 1260,
      "oom": 1261,
      "ken": 1262,
      "cked": 1263,
      "ĠMommy": 1264,
      "ached": 1265,
      "Ġswing": 1266,
      "Ġfruit": 1267,
      "ient": 1268,
      "Ġbroken": 1269,
      "Ġready": 1270,
      "ĠAll": 1271,
      "bye": 1272,
      "ppy": 1273,
      "Ġprom": 1274,
      "Ġanother": 1275,
      "Ġlight": 1276,
      "Ġpretend": 1277,
      "Ġdance": 1278,
      "ater": 1279,
      "Ġclimbed": 1280,
      "where": 1281,
      "Ġlistened": 1282,
      "Ġdanc": 1283,
      "Ġrunning": 1284,
      "Ġonly": 1285,
      "Ġplan": 1286,
      "Ġgone": 1287,
      "Ġswim": 1288,
      "bbed": 1289,
      "Ġtrain": 1290,
      "ila": 1291,
      "ndma": 1292,
      "sh": 1293,
      "Ġclose": 1294,
      "av": 1295,
      "art": 1296,
      "Ġsmell": 1297,
      "aby": 1298,
      "Ġamaz": 1299,
      "Ġhold": 1300,
      "Ġblocks": 1301,
      "Ġwonder": 1302,
      "Ġrepl": 1303,
      "ĠEveryone": 1304,
      "ĠLila": 1305,
      "Ġbutterf": 1306,
      "Ġsees": 1307,
      "Ġreached": 1308,
      "Ġwall": 1309,
      "Ġpu": 1310,
      "oney": 1311,
      "Ġslow": 1312,
      "Ġhelping": 1313,
      "Ġdri": 1314,
      "Ġcream": 1315,
      "Ġcool": 1316,
      "Ġglad": 1317,
      "af": 1318,
      "Ġant": 1319,
      "Ġless": 1320,
      "Ġbeen": 1321,
      "Ġgoodbye": 1322,
      "Ġac": 1323,
      "Ġfight": 1324,
      "ather": 1325,
      "ey": 1326,
      "Ġpushed": 1327,
      "iced": 1328,
      "Ġfair": 1329,
      "Ġmust": 1330,
      "Ġhide": 1331,
      "Ġmoment": 1332,
      "Ġwindow": 1333,
      "Ġsit": 1334,
      "Ġar": 1335,
      "Ġballoon": 1336,
      "Ġsnow": 1337,
      "Ġchild": 1338,
      "Ġexplore": 1339,
      "Ġwished": 1340,
      "Ġbaby": 1341,
      "Ġdone": 1342,
      "Ġwag": 1343,
      "Ġste": 1344,
      "Ġbuy": 1345,
      "Ġstuck": 1346,
      "Ġperf": 1347,
      "ĠJust": 1348,
      "ĠSoon": 1349,
      "Ġthank": 1350,
      "Ġmight": 1351,
      "icy": 1352,
      "Ġname": 1353,
      "ized": 1354,
      "Ġtrying": 1355,
      "Ġbit": 1356,
      "Ġcoming": 1357,
      "Ġbar": 1358,
      "Ġquick": 1359,
      "Ġfall": 1360,
      "Ġapple": 1361,
      "ĠTo": 1362,
      "Ġscary": 1363,
      "ash": 1364,
      "Ġlooks": 1365,
      "Ġbuild": 1366,
      "Ġdoing": 1367,
      "irty": 1368,
      "Ġwin": 1369,
      "Ġunderst": 1370,
      "aisy": 1371,
      "Ġdin": 1372,
      "Ġdream": 1373,
      "ĠThere": 1374,
      "Ġdirty": 1375,
      "Ġheld": 1376,
      "ames": 1377,
      "Ġbooks": 1378,
      "Ġmar": 1379,
      "Ġbutterfly": 1380,
      "Ġleft": 1381,
      "Ġshouted": 1382,
      "Ġcount": 1383,
      "Ġreplied": 1384,
      "avy": 1385,
      "Ġreach": 1386,
      "Ġtiny": 1387,
      "Ġthrough": 1388,
      "ott": 1389,
      "Ġdro": 1390,
      "Ġwhy": 1391,
      "Ġair": 1392,
      "Ġbran": 1393,
      "Ġland": 1394,
      "key": 1395,
      "Ġthree": 1396,
      "Ġpulled": 1397,
      "Ġspl": 1398,
      "Ġgrow": 1399,
      "Ġtreat": 1400,
      "Ġbrother": 1401,
      "Ġwise": 1402,
      "Ġwoods": 1403,
      "Ġsure": 1404,
      "'re": 1405,
      "Ġchair": 1406,
      "ix": 1407,
      "Ġmat": 1408,
      "ins": 1409,
      "Ġseen": 1410,
      "Ġpink": 1411,
      "Ġclapped": 1412,
      "Ġplant": 1413,
      "ely": 1414,
      "Ġowl": 1415,
      "Ġcup": 1416,
      "ield": 1417,
      "Ġsometimes": 1418,
      "andy": 1419,
      "Ġfill": 1420,
      "Ġcloud": 1421,
      "ask": 1422,
      "Ġswam": 1423,
      "outh": 1424,
      "Ġjob": 1425,
      "Ġcolorful": 1426,
      "ĠInside": 1427,
      "Ġremembered": 1428,
      "Ġbigger": 1429,
      "Ġnest": 1430,
      "Ġmouth": 1431,
      "Okay": 1432,
      "Ġlesson": 1433,
      "Ġjoin": 1434,
      "Ġcre": 1435,
      "ph": 1436,
      "oup": 1437,
      "room": 1438,
      "Ġwaved": 1439,
      "uddy": 1440,
      "Ġgrabbed": 1441,
      "Ġstayed": 1442,
      "Oh": 1443,
      "Ġpaint": 1444,
      "Ġclot": 1445,
      "Ġcont": 1446,
      "Ġclothes": 1447,
      "ower": 1448,
      "ĠDaisy": 1449,
      "Ġwaited": 1450,
      "Ġquickly": 1451,
      "cle": 1452,
      "Ġword": 1453,
      "Ġbroke": 1454,
      "ucky": 1455,
      "Ġgames": 1456,
      "Ġcast": 1457,
      "ĠBuddy": 1458,
      "Ġblew": 1459,
      "Ġgent": 1460,
      "ĠFinally": 1461,
      "ĠWhile": 1462,
      "Ġenjoyed": 1463,
      "Ġnoticed": 1464,
      "ries": 1465,
      "ation": 1466,
      "Ġset": 1467,
      "Ġlikes": 1468,
      "Ġpictures": 1469,
      "Ġmus": 1470,
      "ton": 1471,
      "de": 1472,
      "Ġsea": 1473,
      "Ġheavy": 1474,
      "Ġalone": 1475,
      "Ġgif": 1476,
      "asure": 1477,
      "Ġanything": 1478,
      "Ġspot": 1479,
      "Ġmiss": 1480,
      "Ġhopped": 1481,
      "Ġworld": 1482,
      "Ġturns": 1483,
      "orm": 1484,
      "Ġyear": 1485,
      "der": 1486,
      "Ġbott": 1487,
      "Ġpat": 1488,
      "Ġpot": 1489,
      "This": 1490,
      "Ġpen": 1491,
      "lc": 1492,
      "ĠSarah": 1493,
      "Ġmix": 1494,
      "Ġarm": 1495,
      "Ġbike": 1496,
      "Ġtight": 1497,
      "ĠTommy": 1498,
      "Ġeverywhere": 1499,
      "Ġwon": 1500,
      "Ġtower": 1501,
      "Ġthrew": 1502,
      "Ġhimself": 1503,
      "Ġfollowed": 1504,
      "Ġride": 1505,
      "man": 1506,
      "ere": 1507,
      "pe": 1508,
      "less": 1509,
      "Ġju": 1510,
      "Ġje": 1511,
      "amp": 1512,
      "ape": 1513,
      "Ġcomp": 1514,
      "Ġkey": 1515,
      "eddy": 1516,
      "row": 1517,
      "ĠWhat": 1518,
      "\".": 1519,
      "Ġwhite": 1520,
      "ctor": 1521,
      "Ġwrong": 1522,
      "Ġmakes": 1523,
      "Ġbreak": 1524,
      "Ġblack": 1525,
      "arent": 1526,
      "ee": 1527,
      "ner": 1528,
      "Ġdeep": 1529,
      "thy": 1530,
      "Ġmusic": 1531,
      "ĠEm": 1532,
      "Ġpol": 1533,
      "Ġdelic": 1534,
      "cess": 1535,
      "ued": 1536,
      "Ġforgot": 1537,
      "Ġbee": 1538,
      "Ġparent": 1539,
      "olly": 1540,
      "Ġcastle": 1541,
      "ves": 1542,
      "Ġem": 1543,
      "Do": 1544,
      "iet": 1545,
      "Ġwear": 1546,
      "Ġhit": 1547,
      "Ġve": 1548,
      "ister": 1549,
      "oun": 1550,
      "Ġquiet": 1551,
      "Ġround": 1552,
      "ĠBilly": 1553,
      "ance": 1554,
      "Ġstu": 1555,
      "Ġdanced": 1556,
      "Ġvis": 1557,
      "ully": 1558,
      "Ġwants": 1559,
      "Ġleaf": 1560,
      "Ġmonster": 1561,
      "Ġnap": 1562,
      "Ġunderstand": 1563,
      "ang": 1564,
      "Ġbowl": 1565,
      "os": 1566,
      "rot": 1567,
      "Ġbor": 1568,
      "Ġtalked": 1569,
      "itten": 1570,
      "ren": 1571,
      "Ġdry": 1572,
      "Ġfaster": 1573,
      "Ġcookies": 1574,
      "ĠGra": 1575,
      "ĠJoe": 1576,
      "Ġbrought": 1577,
      "fully": 1578,
      "Ġleg": 1579,
      "ross": 1580,
      "Ġmum": 1581,
      "zz": 1582,
      "Ġside": 1583,
      "Ġsign": 1584,
      "Ġsmart": 1585,
      "cy": 1586,
      "Ġrocks": 1587,
      "Ġsomeone": 1588,
      "Ġpoin": 1589,
      "Ġsec": 1590,
      "Ġsharing": 1591,
      "Ġfox": 1592,
      "Ġwell": 1593,
      "Ġres": 1594,
      "Ġrel": 1595,
      "Ġhappen": 1596,
      "Ġbutton": 1597,
      "Ġbranch": 1598,
      "Ġreally": 1599,
      "Ġfinished": 1600,
      "ence": 1601,
      "ards": 1602,
      "Ġdinner": 1603,
      "Ġsister": 1604,
      "Ġflying": 1605,
      "Ġcontin": 1606,
      "Ġworried": 1607,
      "Ġele": 1608,
      "ĠZ": 1609,
      "Ġvisit": 1610,
      "ĠMaybe": 1611,
      "Ġbeach": 1612,
      "Ġque": 1613,
      "th": 1614,
      "Ġsecret": 1615,
      "Ġel": 1616,
      "Ġking": 1617,
      "Ġgift": 1618,
      "gy": 1619,
      "Ġtoday": 1620,
      "Ġperfect": 1621,
      "Ġriver": 1622,
      "Ġeverything": 1623,
      "Ġsilly": 1624,
      "Ġshin": 1625,
      "ipp": 1626,
      "Ġdanger": 1627,
      "Ġchildren": 1628,
      "Ġgu": 1629,
      "Ġfield": 1630,
      "Ġfilled": 1631,
      "Ġfur": 1632,
      "Ġelse": 1633,
      "Ġsmiles": 1634,
      "Ġwelc": 1635,
      "Ġwish": 1636,
      "Ġsang": 1637,
      "Ġgi": 1638,
      "ze": 1639,
      "Ġpudd": 1640,
      "Ġsnack": 1641,
      "Ġeating": 1642,
      "Ġrealized": 1643,
      "Ġpieces": 1644,
      "Ġpromised": 1645,
      "ĠCh": 1646,
      "ord": 1647,
      "Ġspr": 1648,
      "Ġpig": 1649,
      "Ġfree": 1650,
      "Ġcontinued": 1651,
      "Ġstart": 1652,
      "Ġbite": 1653,
      "ead": 1654,
      "Ġparents": 1655,
      "Ġcarefully": 1656,
      "ated": 1657,
      "itting": 1658,
      "Ġjar": 1659,
      "Ġcow": 1660,
      "Maybe": 1661,
      "Ġblank": 1662,
      "Ġdrag": 1663,
      "stead": 1664,
      "Ġorange": 1665,
      "Ġmud": 1666,
      "Ġcrying": 1667,
      "Ġblanket": 1668,
      "Ġenough": 1669,
      "Ġrolled": 1670,
      "cket": 1671,
      "Ġsoup": 1672,
      "Ġsail": 1673,
      "Ġpurp": 1674,
      "imi": 1675,
      "Ġyes": 1676,
      "ale": 1677,
      "Ġdrink": 1678,
      "Ġsnake": 1679,
      "ses": 1680,
      "Ġboun": 1681,
      "Ġpet": 1682,
      "Ġcrab": 1683,
      "Ġlaughing": 1684,
      "Ġthrow": 1685,
      "Ġfairy": 1686,
      "Ġwords": 1687,
      "Ġamazing": 1688,
      "ĠJim": 1689,
      "Ġbath": 1690,
      "ich": 1691,
      "Ġpurple": 1692,
      "ĠJen": 1693,
      "Ġwithout": 1694,
      "ire": 1695,
      "ĠMimi": 1696,
      "Ġbottle": 1697,
      "Ġgrandma": 1698,
      "used": 1699,
      "ons": 1700,
      "Ġpast": 1701,
      "Ġmoney": 1702,
      "iver": 1703,
      "fort": 1704,
      "Ġmail": 1705,
      "Ġbarked": 1706,
      "Ġwagged": 1707,
      "Ġatt": 1708,
      "chool": 1709,
      "Ġmonkey": 1710,
      "Ġdoctor": 1711,
      "unch": 1712,
      "Ġbrown": 1713,
      "Ġmoved": 1714,
      "ises": 1715,
      "Ġasks": 1716,
      "ĠBl": 1717,
      "Ġgetting": 1718,
      "Ġclosed": 1719,
      "Ġwhe": 1720,
      "Ġwelcome": 1721,
      "Ġsu": 1722,
      "Ġcandy": 1723,
      "Ġschool": 1724,
      "Ġmorning": 1725,
      "Ġowner": 1726,
      "gg": 1727,
      "Ġlon": 1728,
      "Ġmother": 1729,
      ".âĢĿ": 1730,
      "Ġhigher": 1731,
      "Ġsitting": 1732,
      "Ġtreasure": 1733,
      "Ġsmo": 1734,
      "!âĢĿ": 1735,
      "Ġdangerous": 1736,
      "Ġlonely": 1737,
      "Ġliving": 1738,
      "Ġapples": 1739,
      "Ġshop": 1740,
      "ased": 1741,
      "Ġstrange": 1742,
      "vel": 1743,
      "ush": 1744,
      "Ġshining": 1745,
      "Ġroad": 1746,
      "Ġcreat": 1747,
      "una": 1748,
      "Ġpaw": 1749,
      "Ġ-": 1750,
      "Ġra": 1751,
      "Ġshoes": 1752,
      "Ġpre": 1753,
      "ible": 1754,
      "Ġstre": 1755,
      "Ġtalking": 1756,
      "althy": 1757,
      "Ġcaught": 1758,
      "Ġegg": 1759,
      "ol": 1760,
      "Ġpass": 1761,
      "me": 1762,
      "Ġlake": 1763,
      "Ġruns": 1764,
      "Ġbuck": 1765,
      "Ġletter": 1766,
      "Ġwings": 1767,
      "Ġchee": 1768,
      "fish": 1769,
      "Ġmad": 1770,
      "Ġfan": 1771,
      "asket": 1772,
      "Ġbasket": 1773,
      "ass": 1774,
      "Ġdragon": 1775,
      "app": 1776,
      "But": 1777,
      "set": 1778,
      "cks": 1779,
      "Ġstone": 1780,
      "Ġthinks": 1781,
      "Tim": 1782,
      "Ġstand": 1783,
      "Ġdelicious": 1784,
      "Ġnose": 1785,
      "Ġpuddle": 1786,
      "Ġtom": 1787,
      "Ġbelie": 1788,
      "Ġfarmer": 1789,
      "Ġsame": 1790,
      "Ġyears": 1791,
      "board": 1792,
      "Ġteddy": 1793,
      "Ġbat": 1794,
      "isk": 1795,
      "itch": 1796,
      "Ġmine": 1797,
      "Ġsear": 1798,
      "Ġcoat": 1799,
      "ches": 1800,
      "ĠEmma": 1801,
      "igh": 1802,
      "Ġdays": 1803,
      "Ġbring": 1804,
      "Ġgentle": 1805,
      "Ġfit": 1806,
      "ĠTogether": 1807,
      "Ġfinally": 1808,
      "Ġwhist": 1809,
      "ars": 1810,
      "Ġcray": 1811,
      "igg": 1812,
      "Ġscream": 1813,
      "Ġkite": 1814,
      "ĠMolly": 1815,
      "Ġheart": 1816,
      "Ġpill": 1817,
      "phant": 1818,
      "arm": 1819,
      "ĠRe": 1820,
      "Ġvill": 1821,
      "Ġcho": 1822,
      "Ġsinging": 1823,
      "The": 1824,
      "ella": 1825,
      "sw": 1826,
      "ined": 1827,
      "Ġtasty": 1828,
      "Ġben": 1829,
      "Ġph": 1830,
      "Ġtrou": 1831,
      "Ġshell": 1832,
      "Ġherself": 1833,
      "Ġhoped": 1834,
      "Ġansw": 1835,
      "Ġwore": 1836,
      "Ġswings": 1837,
      "sy": 1838,
      "Ġhor": 1839,
      "Ġbelong": 1840,
      "Please": 1841,
      "Ġpush": 1842,
      "iskers": 1843,
      "Ġcarrot": 1844,
      "Ġarri": 1845,
      "aughty": 1846,
      "Ġteach": 1847,
      "ĠBlue": 1848,
      "bow": 1849,
      "ract": 1850,
      "Ġnaughty": 1851,
      "Ġbush": 1852,
      "Ġelephant": 1853,
      "Ġdropped": 1854,
      "Ġshap": 1855,
      "ier": 1856,
      "Ġcoll": 1857,
      "sc": 1858,
      "Ġteac": 1859,
      "Ġwoke": 1860,
      "red": 1861,
      "ball": 1862,
      "Ġpile": 1863,
      "Ġhiding": 1864,
      "Ġcour": 1865,
      "ĠTheir": 1866,
      "ĠWhiskers": 1867,
      "Ġpart": 1868,
      "isa": 1869,
      "erry": 1870,
      "Ġtouc": 1871,
      "Ġmin": 1872,
      "Ġpuppy": 1873,
      "'ll": 1874,
      "Ġseem": 1875,
      "llie": 1876,
      "Ġtwins": 1877,
      "ama": 1878,
      "Ġlunch": 1879,
      "Ġbow": 1880,
      "Ġsack": 1881,
      "ĠRemy": 1882,
      "Ġpers": 1883,
      "Tom": 1884,
      "Ġcourse": 1885,
      "Ġcheered": 1886,
      "Ġshapes": 1887,
      "Ġgrew": 1888,
      "ĠBella": 1889,
      "fused": 1890,
      "Ġrope": 1891,
      "Ġvillage": 1892,
      "irth": 1893,
      "irthday": 1894,
      "Ġjuice": 1895,
      "ipped": 1896,
      "Ġrainbow": 1897,
      "ĠLisa": 1898,
      "Ġspin": 1899,
      "OK": 1900,
      "ĠMark": 1901,
      "Ġshook": 1902,
      "Ġspoon": 1903,
      "Ġbench": 1904,
      "Ġstreet": 1905,
      "Ġfence": 1906,
      "Ġcute": 1907,
      "ĠLe": 1908,
      "Ġrob": 1909,
      "Ġnut": 1910,
      "Ġcheese": 1911,
      "Ġprob": 1912,
      "Ġtouched": 1913,
      "idge": 1914,
      "col": 1915,
      "Ġjoy": 1916,
      "ĠJill": 1917,
      "Ġarrived": 1918,
      "Ġseed": 1919,
      "Ġwar": 1920,
      "Ġteacher": 1921,
      "Ġcorn": 1922,
      "Good": 1923,
      "Ġforever": 1924,
      "Ġable": 1925,
      "Ġbell": 1926,
      "Ġfew": 1927,
      "Ġcarry": 1928,
      "ĠGrandma": 1929,
      "Ġmost": 1930,
      "Ġplane": 1931,
      "lem": 1932,
      "Ġeas": 1933,
      "Ġsounds": 1934,
      "lla": 1935,
      "Ġdes": 1936,
      "Ġspo": 1937,
      "Ġproblem": 1938,
      "Ġbirthday": 1939,
      "Ġpower": 1940,
      "Ġinc": 1941,
      "umb": 1942,
      "br": 1943,
      "Ġbugs": 1944,
      "ilk": 1945,
      "Ġwonderful": 1946,
      "ĠThank": 1947,
      "Ġdolls": 1948,
      "Ġbusy": 1949,
      "ato": 1950,
      "irp": 1951,
      "Ġwra": 1952,
      "Ġpromise": 1953,
      "Ġfeels": 1954,
      "ian": 1955,
      "eter": 1956,
      "Ġbread": 1957,
      "ost": 1958,
      "Ġneck": 1959,
      "Ġmilk": 1960,
      "Ġrobot": 1961,
      "Ġrec": 1962,
      "Ġshy": 1963,
      "ountain": 1964,
      "Ġkiss": 1965,
      "Ġband": 1966,
      "Ġcave": 1967,
      "Ġpocket": 1968,
      "eb": 1969,
      "ub": 1970,
      "Ġhelpful": 1971,
      "gly": 1972,
      "Ġslowly": 1973,
      "Ġbelieve": 1974,
      "Ġshake": 1975,
      "umpy": 1976,
      "eared": 1977,
      "Ġpatient": 1978,
      "Ġpop": 1979,
      "Ġob": 1980,
      "arp": 1981,
      "Ġlive": 1982,
      "Ġstorm": 1983,
      "ĠFred": 1984,
      "Ġholding": 1985,
      "Ġugly": 1986,
      "Ġtowards": 1987,
      "Ġupset": 1988,
      "Ġturt": 1989,
      "Ġshr": 1990,
      "adow": 1991,
      "Ġcover": 1992,
      "Ġkitten": 1993,
      "Ġsharp": 1994,
      "Ġdisapp": 1995,
      "Ġstories": 1996,
      "Ġsuc": 1997,
      "Ġhoney": 1998,
      "ove": 1999,
      "read": 2000,
      "Ġnoises": 2001,
      "Ġcir": 2002,
      "Ġballs": 2003,
      "ĠLater": 2004,
      "Ġspark": 2005,
      "Ġgray": 2006,
      "Ġdist": 2007,
      "Ġdirt": 2008,
      "oggy": 2009,
      "Ġlate": 2010,
      "Ġdriver": 2011,
      "Ġseat": 2012,
      "Ġbucket": 2013,
      "Ġmeet": 2014,
      "Ġyoung": 2015,
      "Ġamazed": 2016,
      "Ġturtle": 2017,
      "alm": 2018,
      "Ġspid": 2019,
      "Ġtreats": 2020,
      "ĠBe": 2021,
      "Ġmagical": 2022,
      "unt": 2023,
      "ator": 2024,
      "Ġglow": 2025,
      "Ġseek": 2026,
      "Ġzoom": 2027,
      "Ġlem": 2028,
      "Ġsandw": 2029,
      "fortable": 2030,
      "umber": 2031,
      "Ġtrip": 2032,
      "Ġmist": 2033,
      "Ġsplas": 2034,
      "ĠLeo": 2035,
      "ourn": 2036,
      "Ġmark": 2037,
      "Ġjourn": 2038,
      "Ġfold": 2039,
      "Ġmach": 2040,
      "Ġpuzz": 2041,
      "ling": 2042,
      "Ġhorse": 2043,
      "Ġorgan": 2044,
      "Ġwild": 2045,
      "Ġprincess": 2046,
      "pping": 2047,
      "oose": 2048,
      "Ġcookie": 2049,
      "ens": 2050,
      "Ġhugs": 2051,
      "Lily": 2052,
      "Ġtaking": 2053,
      "ung": 2054,
      "Ġwheel": 2055,
      "epend": 2056,
      "Ġcloth": 2057,
      "Ġsug": 2058,
      "Ġinstead": 2059,
      "Ġbubb": 2060,
      "Ġstring": 2061,
      "Ġnet": 2062,
      "Ġdrove": 2063,
      "iling": 2064,
      "Ġrude": 2065,
      "Ġhuge": 2066,
      "Ġcoin": 2067,
      "Ġstars": 2068,
      "Ġfighting": 2069,
      "Ġspicy": 2070,
      "Ġlucky": 2071,
      "Sure": 2072,
      "Of": 2073,
      "Ġcraw": 2074,
      "Hey": 2075,
      "Ġbone": 2076,
      "Ġinv": 2077,
      "ors": 2078,
      "not": 2079,
      "ĠMary": 2080,
      "Ġca": 2081,
      "pper": 2082,
      "Ġforget": 2083,
      "up": 2084,
      "Ġdi": 2085,
      "aur": 2086,
      "Ġsal": 2087,
      "ert": 2088,
      "Ġcannot": 2089,
      "Ġwhistle": 2090,
      "Ġcard": 2091,
      "Ġsick": 2092,
      "Ġpath": 2093,
      "Ġcou": 2094,
      "Ġspider": 2095,
      "Ġwide": 2096,
      "ĠMama": 2097,
      "Ġfoot": 2098,
      "Ġsnowman": 2099,
      "Ġlife": 2100,
      "Ġsongs": 2101,
      "Ġpillow": 2102,
      "ize": 2103,
      "ĠBu": 2104,
      "Ġfixed": 2105,
      "ĠCat": 2106,
      "est": 2107,
      "Ġgiant": 2108,
      "rill": 2109,
      "Ġcart": 2110,
      "ĠWith": 2111,
      "Ġnod": 2112,
      "Ġboss": 2113,
      "ular": 2114,
      "Ġlast": 2115,
      "Ġcomes": 2116,
      "Ġjoke": 2117,
      "ĠLuna": 2118,
      "Ġmoon": 2119,
      "Ġtaste": 2120,
      "den": 2121,
      "Ġmachine": 2122,
      "Ġgrumpy": 2123,
      "ĠDaddy": 2124,
      "Ġwave": 2125,
      "Ġthin": 2126,
      "Ġdrive": 2127,
      "Ġash": 2128,
      "Ġser": 2129,
      "Ġgrab": 2130,
      "Ġpeace": 2131,
      "Ġdaddy": 2132,
      "ery": 2133,
      "Ġsel": 2134,
      "Ġshelf": 2135,
      "Ġhidden": 2136,
      "erest": 2137,
      "Ġsuddenly": 2138,
      "Ġwasn": 2139,
      "Ġwrite": 2140,
      "Ġlanded": 2141,
      "Ġconfused": 2142,
      "lower": 2143,
      "Ġring": 2144,
      "Ġchange": 2145,
      "Ġworm": 2146,
      "oop": 2147,
      "Ġinterest": 2148,
      "Ġchased": 2149,
      "Ġfruits": 2150,
      "Ġsour": 2151,
      "ity": 2152,
      "Ġmyster": 2153,
      "Ġbark": 2154,
      "Ġrad": 2155,
      "Ġsmooth": 2156,
      "ĠCome": 2157,
      "Ġadventures": 2158,
      "Ġval": 2159,
      "Ġstepped": 2160,
      "Ġfle": 2161,
      "ope": 2162,
      "Ġoven": 2163,
      "ĠChirp": 2164,
      "Ġtakes": 2165,
      "Ġmissed": 2166,
      "let": 2167,
      "Ġselfish": 2168,
      "kin": 2169,
      "Ġsheep": 2170,
      "Ġmessy": 2171,
      "Ġacross": 2172,
      "Ġent": 2173,
      "Ġexp": 2174,
      "to": 2175,
      "Ġce": 2176,
      "Ġlater": 2177,
      "elly": 2178,
      "ife": 2179,
      "ever": 2180,
      "Ġsticks": 2181,
      "Ġtie": 2182,
      "pect": 2183,
      "Ġbought": 2184,
      "Ġstep": 2185,
      "Ġdrew": 2186,
      "Ġban": 2187,
      "box": 2188,
      "?âĢĿ": 2189,
      "Ġwash": 2190,
      "Ġlay": 2191,
      "Ġpour": 2192,
      "ose": 2193,
      "Ġbeak": 2194,
      "Ġjog": 2195,
      "Ġgrate": 2196,
      "ĠMomo": 2197,
      "Ġducks": 2198,
      "Ġspe": 2199,
      "Ġlegs": 2200,
      "ugg": 2201,
      "Ġfil": 2202,
      "Ġemp": 2203,
      "mer": 2204,
      "Ġhope": 2205,
      "Ġtea": 2206,
      "Ġempty": 2207,
      "Ġslid": 2208,
      "Ġfeather": 2209,
      "Ġshirt": 2210,
      "Ġsleepy": 2211,
      "Ġdrum": 2212,
      "amed": 2213,
      "ĠChirpy": 2214,
      "Ġzoo": 2215,
      "Ġpan": 2216,
      "eth": 2217,
      "Ġphone": 2218,
      "Ġgrateful": 2219,
      "Ġfing": 2220,
      "ions": 2221,
      "ĠOllie": 2222,
      "Ġlemon": 2223,
      "Ġclever": 2224,
      "Ġsmelly": 2225,
      "Ġimag": 2226,
      "Ġinteresting": 2227,
      "Ġsave": 2228,
      "Ġchick": 2229,
      "Ġcalm": 2230,
      "Ġsplash": 2231,
      "Ġmed": 2232,
      "Ġwatching": 2233,
      "izzy": 2234,
      "ĠJerry": 2235,
      "izz": 2236,
      "Ġplate": 2237,
      "Ġign": 2238,
      "ĠBunny": 2239,
      "yard": 2240,
      "Ġclouds": 2241,
      "Ġbanan": 2242,
      "Ġline": 2243,
      "Ġfaces": 2244,
      "Ġba": 2245,
      "Ġact": 2246,
      "Ġthough": 2247,
      "Ġwolf": 2248,
      "Ġbackyard": 2249,
      "wel": 2250,
      "Ġseemed": 2251,
      "Ġdogs": 2252,
      "ĠJimmy": 2253,
      "Ġspray": 2254,
      "ĠDoggy": 2255,
      "Come": 2256,
      "Ġprot": 2257,
      "Ġwhole": 2258,
      "Ġmot": 2259,
      "Ġfancy": 2260,
      "Ġquest": 2261,
      "Ġarms": 2262,
      "Ġpuzzle": 2263,
      "Ġhealthy": 2264,
      "Ġsupp": 2265,
      "ward": 2266,
      "Ġfinish": 2267,
      "erly": 2268,
      "Ġalong": 2269,
      "llo": 2270,
      "Ġrocket": 2271,
      "Ġexplain": 2272,
      "ult": 2273,
      "dge": 2274,
      "Ġeasy": 2275,
      "ont": 2276,
      "Ġjewel": 2277,
      "Ġpract": 2278,
      "Ġjelly": 2279,
      "Ġtid": 2280,
      "Ġfake": 2281,
      "Ġcrayons": 2282,
      "Ġwondered": 2283,
      "Ġmaybe": 2284,
      "Ġscar": 2285,
      "Ġship": 2286,
      "Ġnothing": 2287,
      "onest": 2288,
      "Ġemb": 2289,
      "iger": 2290,
      "Ġpool": 2291,
      "Ġlonger": 2292,
      "ĠSt": 2293,
      "Ġanyone": 2294,
      "ually": 2295,
      "Ġfront": 2296,
      "Ġworking": 2297,
      "Ġgives": 2298,
      "irr": 2299,
      "Ġpack": 2300,
      "Ġsuch": 2301,
      "ocked": 2302,
      "ment": 2303,
      "Ġbossy": 2304,
      "Ġtrouble": 2305,
      "Ġsmelled": 2306,
      "Ġsaved": 2307,
      "Ġpin": 2308,
      "rass": 2309,
      "Ġneigh": 2310,
      "St": 2311,
      "arrass": 2312,
      "iting": 2313,
      "Ġhonest": 2314,
      "Ġav": 2315,
      "arge": 2316,
      "Ġembarrass": 2317,
      "Ġlift": 2318,
      "Ġvan": 2319,
      "Ġforgive": 2320,
      "Ġtidy": 2321,
      "Ġweak": 2322,
      "urse": 2323,
      "Ġputs": 2324,
      "unk": 2325,
      "Ġkick": 2326,
      "ĠMum": 2327,
      "Ġmind": 2328,
      "Ġneighb": 2329,
      "Ġplants": 2330,
      "ĠBobby": 2331,
      "Ġsol": 2332,
      "Ġgently": 2333,
      "Ġcozy": 2334,
      "orrow": 2335,
      "Ġprint": 2336,
      "ming": 2337,
      "Ġexplor": 2338,
      "sp": 2339,
      "Ġmistake": 2340,
      "Ġyog": 2341,
      "oc": 2342,
      "oomy": 2343,
      "Ġpointed": 2344,
      "Ġlad": 2345,
      "Ġaf": 2346,
      "Ġstood": 2347,
      "ork": 2348,
      "Ġonto": 2349,
      "Ġjumping": 2350,
      "Ġwaiting": 2351,
      "Ġprince": 2352,
      "Ġcross": 2353,
      "Ġlock": 2354,
      "Ġcheer": 2355,
      "Ġqueen": 2356,
      "ĠWhy": 2357,
      "Ġwing": 2358,
      "ones": 2359,
      "we": 2360,
      "Ġlarge": 2361,
      "Ġlovely": 2362,
      "Ġsur": 2363,
      "Ġret": 2364,
      "Ġdeer": 2365,
      "Ġchew": 2366,
      "Ġcouch": 2367,
      "Ġbal": 2368,
      "ĠMy": 2369,
      "Ġstret": 2370,
      "aughter": 2371,
      "era": 2372,
      "Ġplaces": 2373,
      "Be": 2374,
      "Ġladder": 2375,
      "Ġreturn": 2376,
      "raid": 2377,
      "ĠSomet": 2378,
      "Ġear": 2379,
      "Ġants": 2380,
      "Ġdish": 2381,
      "Ġafraid": 2382,
      "Ġcleaned": 2383,
      "Ġtomorrow": 2384,
      "Ġbuilding": 2385,
      "Ġsandwich": 2386,
      "Ġperson": 2387,
      "ek": 2388,
      "ned": 2389,
      "Ġpretended": 2390,
      "Ġbounce": 2391,
      "Ġwip": 2392,
      "gest": 2393,
      "Ġmatch": 2394,
      "Ġrich": 2395,
      "uce": 2396,
      "Ġpizz": 2397,
      "Ġgather": 2398,
      "Ġsearch": 2399,
      "Ġboring": 2400,
      "ĠTiny": 2401,
      "oman": 2402,
      "Ġteeth": 2403,
      "Ġhum": 2404,
      "aced": 2405,
      "Ġdaughter": 2406,
      "Ġwoman": 2407,
      "Ġscarf": 2408,
      "Ġgoes": 2409,
      "Ġlaw": 2410,
      "My": 2411,
      "Ġstra": 2412,
      "Ġswimming": 2413,
      "Ġfurry": 2414,
      "Ġsplashed": 2415,
      "ĠAl": 2416,
      "Ġpri": 2417,
      "Ġloves": 2418,
      "Ġtrue": 2419,
      "ĠBird": 2420,
      "Ġscreamed": 2421,
      "Ġlazy": 2422,
      "Ġgen": 2423,
      "Ġanswer": 2424,
      "Ġnumber": 2425,
      "Ġeag": 2426,
      "Ġashamed": 2427,
      "Ġpizza": 2428,
      "aw": 2429,
      "Ġappeared": 2430,
      "Ġfear": 2431,
      "Ġnearby": 2432,
      "Ġpowerful": 2433,
      "Ġflag": 2434,
      "Ġhang": 2435,
      "vous": 2436,
      "Ġclown": 2437,
      "Ġchase": 2438,
      "Ġmotor": 2439,
      "Ġwand": 2440,
      "ĠBenny": 2441,
      "ĠTV": 2442,
      "Ġrub": 2443,
      "Ġsuccess": 2444,
      "Ġchocol": 2445,
      "ĠIf": 2446,
      "Ġcreative": 2447,
      "Ġtrust": 2448,
      "Ġwearing": 2449,
      "Ġnoisy": 2450,
      "Ġmatter": 2451,
      "pa": 2452,
      "Ġdig": 2453,
      "ĠDucky": 2454,
      "Ġhello": 2455,
      "Ġner": 2456,
      "Ġtool": 2457,
      "Ġsaf": 2458,
      "ado": 2459,
      "Ġnervous": 2460,
      "elp": 2461,
      "Ġtest": 2462,
      "Ġsmiling": 2463,
      "Ġsold": 2464,
      "icked": 2465,
      "oppy": 2466,
      "osaur": 2467,
      "Ġcircle": 2468,
      "mb": 2469,
      "Now": 2470,
      "ĠHow": 2471,
      "Ġmap": 2472,
      "Ġdrank": 2473,
      "Ġclass": 2474,
      "Ġtries": 2475,
      "Ġchocolate": 2476,
      "ĠPlease": 2477,
      "Ġimpress": 2478,
      "Ġknee": 2479,
      "Ġgener": 2480,
      "Ġdinosaur": 2481,
      "Ġpolite": 2482,
      "Ġmirr": 2483,
      "ĠGo": 2484,
      "Ġballoons": 2485,
      "Ġgold": 2486,
      "Ġrare": 2487,
      "Ġprotect": 2488,
      "Ġcand": 2489,
      "Stop": 2490,
      "ĠDon": 2491,
      "Ġcarried": 2492,
      "ensive": 2493,
      "Ġap": 2494,
      "Ġshadow": 2495,
      "Ġmirror": 2496,
      "Ġbald": 2497,
      "Ġgun": 2498,
      "ina": 2499,
      "Ġexpensive": 2500,
      "Ġreg": 2501,
      "iff": 2502,
      "Ġmysterious": 2503,
      "Ġpump": 2504,
      "Ġnote": 2505,
      "Ġhero": 2506,
      "ĠU": 2507,
      "Ġmarch": 2508,
      "Ġrespect": 2509,
      "Ġhar": 2510,
      "arl": 2511,
      "Ġicy": 2512,
      "Ġweird": 2513,
      "ĠBear": 2514,
      "Ġsnee": 2515,
      "Ġcri": 2516,
      "Ġgate": 2517,
      "Ġsoap": 2518,
      "rag": 2519,
      "ute": 2520,
      "issors": 2521,
      "Ġthese": 2522,
      "Ġpoor": 2523,
      "Ġtowel": 2524,
      "Ġwhale": 2525,
      "Ġfeet": 2526,
      "Ġtape": 2527,
      "Ġdizzy": 2528,
      "itter": 2529,
      "Ġgenerous": 2530,
      "ndpa": 2531,
      "Ġpres": 2532,
      "nic": 2533,
      "Ġdisco": 2534,
      "Help": 2535,
      "ventually": 2536,
      "Ġpicnic": 2537,
      "Ġmic": 2538,
      "Ġlead": 2539,
      "Ġsque": 2540,
      "ĠSometimes": 2541,
      "Ġembarrassed": 2542,
      "Ġjourney": 2543,
      "isp": 2544,
      "Ġsugar": 2545,
      "scape": 2546,
      "Ġboot": 2547,
      "Ġtent": 2548,
      "Ġpeaceful": 2549,
      "Ġfat": 2550,
      "Ġscissors": 2551,
      "Ġtasted": 2552,
      "Ġyelled": 2553,
      "Ġtick": 2554,
      "Ġmel": 2555,
      "Ġbrush": 2556,
      "ĠElla": 2557,
      "Ġdancing": 2558,
      "ness": 2559,
      "Ġglue": 2560,
      "Ġhur": 2561,
      "Ġrough": 2562,
      "Ġclap": 2563,
      "Ġbridge": 2564,
      "ote": 2565,
      "Ġdecor": 2566,
      "Ġcloset": 2567,
      "Ġcrown": 2568,
      "Ġstir": 2569,
      "ĠAndy": 2570,
      "ual": 2571,
      "imp": 2572,
      "owed": 2573,
      "airs": 2574,
      "ume": 2575,
      "Ġcap": 2576,
      "Ġlamp": 2577,
      "Ġvase": 2578,
      "Ġscare": 2579,
      "lebr": 2580,
      "Ġrelie": 2581,
      "lves": 2582,
      "any": 2583,
      "Ġeld": 2584,
      "Ġtele": 2585,
      "Ġcelebr": 2586,
      "Ġgigg": 2587,
      "Ġwhisp": 2588,
      "Ġlog": 2589,
      "Ġblow": 2590,
      "Ġpainted": 2591,
      "Ġsco": 2592,
      "Ġpay": 2593,
      "erries": 2594,
      "Ġwis": 2595,
      "Ġberries": 2596,
      "Ġmixed": 2597,
      "Ġspread": 2598,
      "Ġwouldn": 2599,
      "Ġcage": 2600,
      "Ġbake": 2601,
      "rob": 2602,
      "getable": 2603,
      "Ġmountain": 2604,
      "Ġadm": 2605,
      "Ġdrawing": 2606,
      "Ġbecome": 2607,
      "ĠBr": 2608,
      "Ġfamous": 2609,
      "Ġbean": 2610,
      "Ġknocked": 2611,
      "Ġnorm": 2612,
      "Ġvegetable": 2613,
      "asp": 2614,
      "Ġkicked": 2615,
      "ustr": 2616,
      "Ġshark": 2617,
      "ser": 2618,
      "Ġincred": 2619,
      "Ġlose": 2620,
      "Ġnormal": 2621,
      "Ġwrap": 2622,
      "ĠSome": 2623,
      "ced": 2624,
      "Ġgroup": 2625,
      "Ġthick": 2626,
      "Ġ3": 2627,
      "Ġfine": 2628,
      "Ġglass": 2629,
      "Ġignor": 2630,
      "oph": 2631,
      "Ġclock": 2632,
      "Ġteam": 2633,
      "ĠJenny": 2634,
      "ĠPe": 2635,
      "Ġelderly": 2636,
      "Ġclear": 2637,
      "Ġcorner": 2638,
      "Max": 2639,
      "Ġfrustr": 2640,
      "Ġmighty": 2641,
      "robe": 2642,
      "Ġcone": 2643,
      "Ġincredible": 2644,
      "ighed": 2645,
      "Ġmoms": 2646,
      "Ġbalance": 2647,
      "Ġsock": 2648,
      "Ġspace": 2649,
      "Ġjam": 2650,
      "ragile": 2651,
      "Ġfright": 2652,
      "Ġbranches": 2653,
      "Ġorganized": 2654,
      "Ġroar": 2655,
      "port": 2656,
      "Ġsword": 2657,
      "alous": 2658,
      "Ġguess": 2659,
      "Ġfool": 2660,
      "Ġsell": 2661,
      "Ġfeed": 2662,
      "ĠSammy": 2663,
      "Ġwhich": 2664,
      "Ġhorn": 2665,
      "Mommy": 2666,
      "Ġpresent": 2667,
      "Ġjealous": 2668,
      "Ġyarn": 2669,
      "ony": 2670,
      "Ġfragile": 2671,
      "Ġburn": 2672,
      "Ġunderstood": 2673,
      "Ġmis": 2674,
      "Ġstubb": 2675,
      "Ġter": 2676,
      "Wh": 2677,
      "Ġfrustrated": 2678,
      "ray": 2679,
      "Ġhose": 2680,
      "cient": 2681,
      "Where": 2682,
      "Ġspent": 2683,
      "Ġshoe": 2684,
      "Ġtaught": 2685,
      "Ġstubborn": 2686,
      "Ġtwist": 2687,
      "Ġcreature": 2688,
      "Ġchest": 2689,
      "Ġspoiled": 2690,
      "Ġrelieved": 2691,
      "Ġancient": 2692,
      "ĠTr": 2693,
      "ique": 2694,
      "Ġwake": 2695,
      "Ġfier": 2696,
      "Ġpray": 2697,
      "Ġfierce": 2698,
      "Ġeggs": 2699,
      "Ġcab": 2700,
      "Ġterri": 2701,
      "Ġbarn": 2702,
      "Ġpumpkin": 2703,
      "Ġcomfortable": 2704,
      "Ġord": 2705,
      "Ġfrightened": 2706,
      "orry": 2707,
      "Ġtoug": 2708,
      "Ġunique": 2709,
      "Ġmeasure": 2710,
      "Ġgoat": 2711,
      "Ġwagon": 2712,
      "Ġunus": 2713,
      "Ġbreath": 2714,
      "Ġfoolish": 2715,
      "Ġ'": 2716,
      "Ġuseful": 2717,
      "Ġexploring": 2718,
      "dle": 2719,
      "Ġstraw": 2720,
      "Ġunusual": 2721,
      "Ġdug": 2722,
      "Ġclay": 2723,
      "Ġdiscover": 2724,
      "Ġtomato": 2725,
      "Ġdead": 2726,
      "Ġfinding": 2727,
      "Ġpolice": 2728,
      "Ġwrote": 2729,
      "Ġclum": 2730,
      "ym": 2731,
      "Ġexam": 2732,
      "lace": 2733,
      "ĠRex": 2734,
      "Ġwaves": 2735,
      "Ġsquare": 2736,
      "Ġhears": 2737,
      "Ġcabin": 2738,
      "Ġtells": 2739,
      "Ġnecklace": 2740,
      "Ġdull": 2741,
      "Ġclumsy": 2742,
      "Ġtough": 2743,
      "Ġbubbles": 2744,
      "Ġnosy": 2745,
      "kn": 2746,
      "Ġsearched": 2747,
      "Ġwashed": 2748,
      "Ġbathroom": 2749,
      "Ġpaws": 2750,
      "ĠWill": 2751,
      "bby": 2752,
      "ond": 2753,
      "unn": 2754,
      "anged": 2755,
      "Ġboard": 2756,
      "known": 2757,
      "fic": 2758,
      "Ġasking": 2759,
      "Ġcrazy": 2760,
      "Ġthankful": 2761,
      "Ġbitter": 2762,
      "Ġsunf": 2763,
      "yal": 2764,
      "Ġpir": 2765,
      "berry": 2766,
      "Ġind": 2767,
      "alk": 2768,
      "Ġdiffic": 2769,
      "Ġrose": 2770,
      "cil": 2771,
      "Ġswan": 2772,
      "Ġbloom": 2773,
      "Ġunknown": 2774,
      "Ġcovered": 2775,
      "Ġdifficult": 2776,
      "Ġadd": 2777,
      "Ġpencil": 2778,
      "Ġfinger": 2779,
      "Ġham": 2780,
      "Ġhoop": 2781,
      "Ġjet": 2782,
      "Ġwitch": 2783,
      "Ġdrop": 2784,
      "Ġchicken": 2785,
      "Ġgloomy": 2786,
      "apped": 2787,
      "Ġloyal": 2788,
      "als": 2789,
      "Ġwealthy": 2790,
      "com": 2791,
      "light": 2792,
      "ĠMany": 2793,
      "Ġunl": 2794,
      "Ġcats": 2795,
      "Ġending": 2796,
      "Ġguit": 2797,
      "bled": 2798,
      "Here": 2799,
      "shine": 2800,
      "Ġdove": 2801,
      "Ġsort": 2802,
      "Ġjoined": 2803,
      "Ġcher": 2804,
      "anut": 2805,
      "Ġmov": 2806,
      "Ġterrible": 2807,
      "Ġyours": 2808,
      "iant": 2809,
      "Ġsalad": 2810,
      "Ġnuts": 2811,
      "Ġrat": 2812,
      "Ġlif": 2813,
      "ground": 2814,
      "Ġtiger": 2815,
      "Ġpotato": 2816,
      "Ġmask": 2817,
      "xible": 2818,
      "selves": 2819,
      "Ġvalue": 2820,
      "Ġchanged": 2821,
      "ĠBrown": 2822,
      "Ġmoving": 2823,
      "Ġexciting": 2824,
      "ormous": 2825,
      "Ġbody": 2826,
      "ĠInstead": 2827,
      "Ġtoast": 2828,
      "Ġrecord": 2829,
      "erp": 2830,
      "Ġzip": 2831,
      "Ġcheap": 2832,
      "Ġdisg": 2833,
      "Ġguitar": 2834,
      "irsty": 2835,
      "Ġknowing": 2836,
      "Ġadventur": 2837,
      "Ġyourself": 2838,
      "Ġenormous": 2839,
      "Ġhairy": 2840,
      "Ġshoot": 2841,
      "Ġbored": 2842,
      "Ġpepper": 2843,
      "Ġremind": 2844,
      "ory": 2845,
      "Ġacorn": 2846,
      "land": 2847,
      "Ġadventurous": 2848,
      "Ġsunshine": 2849,
      "Ġsmaller": 2850,
      "Ġstuff": 2851,
      "Ġhats": 2852,
      "Ġsolve": 2853,
      "Ġflexible": 2854,
      "Ġcost": 2855,
      "rilliant": 2856,
      "Ġknife": 2857,
      "Ġperform": 2858,
      "Ġsnacks": 2859,
      "Ġnods": 2860,
      "Ġshore": 2861,
      "Ġbrilliant": 2862,
      "Ġthirsty": 2863,
      "Ġdelicate": 2864,
      "ĠNo": 2865,
      "Ġfrown": 2866,
      "Ġdisgust": 2867,
      "Ġcollect": 2868,
      "Ġstri": 2869,
      "Ġseeds": 2870,
      "Ġcounted": 2871,
      "Ġasleep": 2872,
      "Ġbanana": 2873,
      "reen": 2874,
      "Ġmailbox": 2875,
      "iness": 2876,
      "Ġtrick": 2877,
      "Ġdough": 2878,
      "Ġneighbor": 2879,
      "Ben": 2880,
      "ungle": 2881,
      "Ġheal": 2882,
      "ilt": 2883,
      "live": 2884,
      "Who": 2885,
      "ĠLittle": 2886,
      "Ġstage": 2887,
      "ident": 2888,
      "Ġmarket": 2889,
      "Ġcube": 2890,
      "Ġstat": 2891,
      "Ġjungle": 2892,
      "Ġsquee": 2893,
      "mbre": 2894,
      "Ġexplained": 2895,
      "ates": 2896,
      "Ġumbre": 2897,
      "Me": 2898,
      "Ġdisgusting": 2899,
      "Ġlab": 2900,
      "Ġjolly": 2901,
      "und": 2902,
      "inal": 2903,
      "Ġfridge": 2904,
      "Ġcrane": 2905,
      "corn": 2906,
      "Ġsuit": 2907,
      "Ġflash": 2908,
      "pid": 2909,
      "iddle": 2910,
      "Ġsunflower": 2911,
      "Ġtimes": 2912,
      "ict": 2913,
      "Ġcaterp": 2914,
      "Ġcaterpill": 2915,
      "Ġrelax": 2916,
      "Ġshiver": 2917,
      "Ġfour": 2918,
      "Ġisland": 2919,
      "iginal": 2920,
      "Ġharm": 2921,
      "ying": 2922,
      "Ġstupid": 2923,
      "Ġmedic": 2924,
      "Ġcomb": 2925,
      "Ġgoose": 2926,
      "Ġcro": 2927,
      "edient": 2928,
      "ĠJake": 2929,
      "Ġstove": 2930,
      "If": 2931,
      "Are": 2932,
      "Ġindepend": 2933,
      "most": 2934,
      "Ġspring": 2935,
      "Ġgem": 2936,
      "Ġbatter": 2937,
      "Ġsighed": 2938,
      "Ġvegetables": 2939,
      "Ġstones": 2940,
      "ĠYour": 2941,
      "pes": 2942,
      "Ġshine": 2943,
      "Ġmedicine": 2944,
      "Ġdepend": 2945,
      "Ġrug": 2946,
      "Ġcareless": 2947,
      "Ġoriginal": 2948,
      "Ġstamp": 2949,
      "Ġgar": 2950,
      "Ġcries": 2951,
      "gu": 2952,
      "Ġcarrots": 2953,
      "Ġscr": 2954,
      "Ġsuccessful": 2955,
      "Ġsauce": 2956,
      "Ġjeep": 2957,
      "Ġpopcorn": 2958,
      "Ġmeal": 2959,
      "Ġobedient": 2960,
      "Ġalmost": 2961,
      "Ġmiddle": 2962,
      "Ġmagn": 2963,
      "Ġstudy": 2964,
      "Ġindependent": 2965,
      "ĠEmily": 2966,
      "Ġfearful": 2967,
      "Ġjack": 2968,
      "met": 2969,
      "inky": 2970,
      "Sorry": 2971,
      "Ġescape": 2972,
      "Ġcaterpillar": 2973,
      "Ġserious": 2974,
      "Ġpeanut": 2975,
      "Ġbedroom": 2976,
      "Ġeager": 2977,
      "aken": 2978,
      "Ġgets": 2979,
      "Ġparrot": 2980,
      "Ġstatue": 2981,
      "Ġhelmet": 2982,
      "Ġpebb": 2983,
      "Ġfountain": 2984,
      "ĠToday": 2985,
      "Ġang": 2986,
      "Ġraven": 2987,
      "Ġpasta": 2988,
      "Ġumbrella": 2989,
      "Ġcompet": 2990,
      "arth": 2991,
      "Ġjacket": 2992,
      "Ġbelonged": 2993,
      "Ġdest": 2994,
      "Ġfilthy": 2995,
      "Ġdesign": 2996,
      "Ġborrow": 2997,
      "Ġcam": 2998,
      "erable": 2999,
      "Ġhouses": 3000,
      "Ġbelt": 3001,
      "Ġprize": 3002,
      "Ġhay": 3003,
      "Ġbrace": 3004,
      "Ġstanding": 3005,
      "Ġmiserable": 3006,
      "Ġbracelet": 3007,
      "Ġraced": 3008,
      "Ġtaken": 3009,
      "ages": 3010,
      "Ġfork": 3011,
      "Ġcrayon": 3012,
      "Ġpainting": 3013,
      "io": 3014,
      "Ġtriang": 3015,
      "Ġimpressive": 3016,
      "Ġchoose": 3017,
      "Ġfig": 3018,
      "Ġpoint": 3019,
      "Ġtied": 3020,
      "iable": 3021,
      "Ġspotted": 3022,
      "Ġlifted": 3023,
      "Ġslipped": 3024,
      "ours": 3025,
      "Ġtank": 3026,
      "Ġthoughtful": 3027,
      "Ġdependable": 3028,
      "Ġsteal": 3029,
      "Ġgarage": 3030,
      "Ġbuilt": 3031,
      "Ġer": 3032,
      "ipe": 3033,
      "ĠSn": 3034,
      "Ġmole": 3035,
      "Ġcrawled": 3036,
      "Ġscale": 3037,
      "Ġboats": 3038,
      "Ġpant": 3039,
      "Ġpian": 3040,
      "Ġhammer": 3041,
      "Ġbottom": 3042,
      "ĠTrue": 3043,
      "Ġcheerful": 3044,
      "lph": 3045,
      "Ġusing": 3046,
      "ĠPeter": 3047,
      "Ġsmoke": 3048,
      "Ġpicks": 3049,
      "Sam": 3050,
      "Ġmoder": 3051,
      "Ġshows": 3052,
      "berries": 3053,
      "rn": 3054,
      "Ġpiano": 3055,
      "Ġmagnet": 3056,
      "dile": 3057,
      "codile": 3058,
      "Ġhurts": 3059,
      "inary": 3060,
      "Ġref": 3061,
      "Ġcrack": 3062,
      "Ġeng": 3063,
      "oin": 3064,
      "Ġaunt": 3065,
      "Ġmelon": 3066,
      "ĠEven": 3067,
      "Ġwaff": 3068,
      "Ġmodern": 3069,
      "Ġdolph": 3070,
      "unnel": 3071,
      "cream": 3072,
      "pack": 3073,
      "Ġtunnel": 3074,
      "Ġarrow": 3075,
      "Ġmush": 3076,
      "Ġreliable": 3077,
      "Ġhopping": 3078,
      "Ġmushroom": 3079,
      "Ġjug": 3080,
      "Ġsquash": 3081,
      "Ġgum": 3082,
      "Ġsink": 3083,
      "Ġmovie": 3084,
      "Ġtax": 3085,
      "Ġflute": 3086,
      "Ġbeet": 3087,
      "Ġlean": 3088,
      "iv": 3089,
      "Ġpopular": 3090,
      "icop": 3091,
      "icopter": 3092,
      "Ġcryst": 3093,
      "Ġones": 3094,
      "Ġsil": 3095,
      "Ġcompetit": 3096,
      "Ġhelicopter": 3097,
      "aser": 3098,
      "Ġneeds": 3099,
      "ipop": 3100,
      "llipop": 3101,
      "Ġcrocodile": 3102,
      "Ġliz": 3103,
      "Ġpress": 3104,
      "Ġtroubled": 3105,
      "Ġpige": 3106,
      "Ġlocked": 3107,
      "Ġtricks": 3108,
      "Ġlollipop": 3109,
      "Ġplayful": 3110,
      "Ġhumble": 3111,
      "Ġtaxi": 3112,
      "Ġkissed": 3113,
      "Ġlow": 3114,
      "appy": 3115,
      "comfortable": 3116,
      "amond": 3117,
      "Ġrid": 3118,
      "Ġuncomfortable": 3119,
      "host": 3120,
      "Ġwander": 3121,
      "atch": 3122,
      "Ġangel": 3123,
      "edy": 3124,
      "cles": 3125,
      "Ġtorn": 3126,
      "Ġgrace": 3127,
      "Ġanx": 3128,
      "Ġwrapped": 3129,
      "Ġmuff": 3130,
      "Ġtwig": 3131,
      "Ġpants": 3132,
      "Ġdisappoin": 3133,
      "Ġhelps": 3134,
      "Ġdiamond": 3135,
      "Ġcamera": 3136,
      "oto": 3137,
      "Ġanxious": 3138,
      "Ġghost": 3139,
      "atter": 3140,
      "Ġtears": 3141,
      "Ġruined": 3142,
      "How": 3143,
      "ĠSus": 3144,
      "cident": 3145,
      "ilty": 3146,
      "Ġquar": 3147,
      "aff": 3148,
      "Ġfis": 3149,
      "opl": 3150,
      "eropl": 3151,
      "Ġenv": 3152,
      "Ġguilty": 3153,
      "Ġbull": 3154,
      "Ġaeropl": 3155,
      "Ġhelpless": 3156,
      "Ġhappiness": 3157,
      "Ġlizard": 3158,
      "Ġboys": 3159,
      "cut": 3160,
      "Ġcere": 3161,
      "Ġwalks": 3162,
      "cean": 3163,
      "Ġpassed": 3164,
      "tt": 3165,
      "Ġmeant": 3166,
      "Ġocean": 3167,
      "Ġfluffy": 3168,
      "Ġwire": 3169,
      "Ġnail": 3170,
      "Ġdeaf": 3171,
      "zed": 3172,
      "Ġstretch": 3173,
      "Ġcact": 3174,
      "Ġcandle": 3175,
      "Ġbeetle": 3176,
      "Ġmop": 3177,
      "Ġharmless": 3178,
      "umpet": 3179,
      "Ġordinary": 3180,
      "Ġanswered": 3181,
      "Ġcop": 3182,
      "Ġcollar": 3183,
      "Ġbees": 3184,
      "Ġtire": 3185,
      "Ġshape": 3186,
      "Ġquarrel": 3187,
      "Ġradio": 3188,
      "Ġflashlight": 3189,
      "Ġcrystal": 3190,
      "Ġharder": 3191,
      "Ġpoured": 3192,
      "Ġtrumpet": 3193,
      "Ġengine": 3194,
      "Ġpersist": 3195,
      "Ġhunt": 3196,
      "Ġtooth": 3197,
      "Ġcereal": 3198,
      "Ġinvited": 3199,
      "Ġcomput": 3200,
      "Ġtag": 3201,
      "Ġoffice": 3202,
      "Ġmelt": 3203,
      "Ġspill": 3204,
      "Ġcharm": 3205,
      "coa": 3206,
      "Ġlit": 3207,
      "Ġscoot": 3208,
      "Ġcomet": 3209,
      "Ġtriangle": 3210,
      "ief": 3211,
      "Ġmug": 3212,
      "Ġrep": 3213,
      "ube": 3214,
      "Ġyogurt": 3215,
      "Ġspend": 3216,
      "Ġcompass": 3217,
      "Ġaccident": 3218,
      "Ġshade": 3219,
      "ĠPipp": 3220,
      "hett": 3221,
      "aghett": 3222,
      "aghetti": 3223,
      "Ġdisappointed": 3224,
      "Ġlicked": 3225,
      "Ġcactus": 3226,
      "Ġpale": 3227,
      "Ġcush": 3228,
      "Ġfigure": 3229,
      "Ġgiving": 3230,
      "Ġavoc": 3231,
      "Ġregular": 3232,
      "Ġsheet": 3233,
      "Ġwhispered": 3234,
      "ĠPoppy": 3235,
      "aze": 3236,
      "uth": 3237,
      "ellig": 3238,
      "ĠDan": 3239,
      "Ġcreate": 3240,
      "Ġbarber": 3241,
      "Ġintellig": 3242,
      "Ġpipe": 3243,
      "Ġrode": 3244,
      "Ġroof": 3245,
      "Ġthread": 3246,
      "ither": 3247,
      "Ġlibr": 3248,
      "Ġload": 3249,
      "Ġvi": 3250,
      "Ġgifted": 3251,
      "ccol": 3252,
      "Ġpracticed": 3253,
      "Ġdelight": 3254,
      "ccoli": 3255,
      "Ġharsh": 3256,
      "Ġdust": 3257,
      "Ġpow": 3258,
      "asses": 3259,
      "Ġbicy": 3260,
      "azz": 3261,
      "Ġspaghetti": 3262,
      "Ġcompassion": 3263,
      "Ġsailed": 3264,
      "urkey": 3265,
      "Ġforward": 3266,
      "ubby": 3267,
      "Ġpersistent": 3268,
      "Ġspeed": 3269,
      "Ġmitten": 3270,
      "Ġpro": 3271,
      "Ġcocoa": 3272,
      "Ġenvel": 3273,
      "ĠBuzz": 3274,
      "Ġquestions": 3275,
      "Ġcomputer": 3276,
      "Ġcoo": 3277,
      "Ġfeathers": 3278,
      "Ġglove": 3279,
      "ging": 3280,
      "Ġrice": 3281,
      "Ġshrimp": 3282,
      "Ġdesk": 3283,
      "Ġstream": 3284,
      "Ġinse": 3285,
      "Ġpigeon": 3286,
      "Ġcharming": 3287,
      "hip": 3288,
      "Ġears": 3289,
      "Ġcarp": 3290,
      "lcan": 3291,
      "Ġenvious": 3292,
      "Ġknot": 3293,
      "Ġturkey": 3294,
      "Ġstronger": 3295,
      "omes": 3296,
      "Ġcoins": 3297,
      "Ġtap": 3298,
      "Ġraft": 3299,
      "lcano": 3300,
      "weet": 3301,
      "Ġtrap": 3302,
      "ĠPolly": 3303,
      "umbers": 3304,
      "Ġaeroplane": 3305,
      "Ġtrunk": 3306,
      "Ġwheat": 3307,
      "Ġboxes": 3308,
      "Ġchubby": 3309,
      "Ġcarpet": 3310,
      "Ġrestless": 3311,
      "Ġintelligent": 3312,
      "Ġtube": 3313,
      "Ġspun": 3314,
      "Ġdreams": 3315,
      "Ġhalf": 3316,
      "Ġfriendship": 3317,
      "ulif": 3318,
      "olin": 3319,
      "ĠMummy": 3320,
      "Ġloop": 3321,
      "Ġcrawl": 3322,
      "Ġbroccoli": 3323,
      "Ġonion": 3324,
      "Ġweek": 3325,
      "Ġdeliver": 3326,
      "Ġacce": 3327,
      "Ġvide": 3328,
      "Ġvolcano": 3329,
      "Ġsle": 3330,
      "Ġtrack": 3331,
      "Ġbri": 3332,
      "Ġcaulif": 3333,
      "Ġvine": 3334,
      "ye": 3335,
      "Ġticket": 3336,
      "Ġthief": 3337,
      "essie": 3338,
      "cycle": 3339,
      "Ġlouder": 3340,
      "Ġinsect": 3341,
      "Ġnumbers": 3342,
      "asing": 3343,
      "Ġyaw": 3344,
      "Ġhaircut": 3345,
      "ital": 3346,
      "Ġsleeping": 3347,
      "ĠAlice": 3348,
      "Ġmill": 3349,
      "Ġalert": 3350,
      "Ġeventually": 3351,
      "Ġexcite": 3352,
      "Ġpebble": 3353,
      "Ġhosp": 3354,
      "Ġattract": 3355,
      "Ġplanet": 3356,
      "anger": 3357,
      "Ġuniver": 3358,
      "isted": 3359,
      "ulu": 3360,
      "Ġeraser": 3361,
      "Ġhospital": 3362,
      "Ġreturned": 3363,
      "Ġdestro": 3364,
      "Ġgraceful": 3365,
      "Ġhappening": 3366,
      "ĠBet": 3367,
      "ache": 3368,
      "ĠOK": 3369,
      "Ġdecide": 3370,
      "Ġlearning": 3371,
      "Ġscreen": 3372,
      "rework": 3373,
      "Ġnicely": 3374,
      "Ġleop": 3375,
      "Ġcauliflower": 3376,
      "Ġcompetitive": 3377,
      "Ġpoem": 3378,
      "Ġcelebrate": 3379,
      "ĠPet": 3380,
      "acht": 3381,
      "Ġcurt": 3382,
      "Ġpeach": 3383,
      "Ġsoldier": 3384,
      "Ġsaus": 3385,
      "Ġparade": 3386,
      "atient": 3387,
      "Ġattractive": 3388,
      "Ġcurtain": 3389,
      "Ġbase": 3390,
      "Ġdolphin": 3391,
      "Ġviolin": 3392,
      "Ġways": 3393,
      "Ġtravel": 3394,
      "ats": 3395,
      "Ġrod": 3396,
      "Ġignorant": 3397,
      "ulb": 3398,
      "Ġwheels": 3399,
      "Ġyacht": 3400,
      "Ġscatter": 3401,
      "Ġdeter": 3402,
      "Ġcompassionate": 3403,
      "Ġbarrel": 3404,
      "Ġenvelope": 3405,
      "Ġbubble": 3406,
      "Ġlying": 3407,
      "Ġfirework": 3408,
      "Go": 3409,
      "ĠLulu": 3410,
      "Ġquestion": 3411,
      "zzy": 3412,
      "Ġscooter": 3413,
      "Ġdeterm": 3414,
      "Ġrag": 3415,
      "Ġthu": 3416,
      "Ġbicycle": 3417,
      "elery": 3418,
      "Ġneedle": 3419,
      "Ġjudge": 3420,
      "Ġbulb": 3421,
      "Ġleopard": 3422,
      "Ġtem": 3423,
      "Ġpony": 3424,
      "Ġcricket": 3425,
      "Ġhomes": 3426,
      "Ġorder": 3427,
      "Ġador": 3428,
      "tern": 3429,
      "Ġtruth": 3430,
      "Ġhook": 3431,
      "dom": 3432,
      "Ġrubbed": 3433,
      "igator": 3434,
      "Ġbushes": 3435,
      "Ġuncle": 3436,
      "ĠMiss": 3437,
      "Ġcushion": 3438,
      "Ġspell": 3439,
      "Ġgrown": 3440,
      "Sue": 3441,
      "Ġcooked": 3442,
      "Ġadorable": 3443,
      "Ġchalk": 3444,
      "Ġsoar": 3445,
      "Ġpurse": 3446,
      "Ġskin": 3447,
      "Ġthemselves": 3448,
      "Ġimpatient": 3449,
      "Ġcelery": 3450,
      "Ġtray": 3451,
      "ĠSh": 3452,
      "Ġshells": 3453,
      "Ġpengu": 3454,
      "Ġsniff": 3455,
      "Ġprun": 3456,
      "Ġwalls": 3457,
      "Ġseal": 3458,
      "ĠPete": 3459,
      "Ġlively": 3460,
      "Ġcase": 3461,
      "Ġalligator": 3462,
      "Ġdistant": 3463,
      "Ġradish": 3464,
      "Ġsaying": 3465,
      "Ġspeak": 3466,
      "Ġmotorcycle": 3467,
      "ĠTina": 3468,
      "Ġmeat": 3469,
      "Ġsend": 3470,
      "ĠBirdy": 3471,
      "Ġspinning": 3472,
      "Ġforth": 3473,
      "illa": 3474,
      "Ġcounting": 3475,
      "Ġenth": 3476,
      "Ġbounced": 3477,
      "Ġchain": 3478,
      "Ġed": 3479,
      "Ġcleaning": 3480,
      "ebra": 3481,
      "Ġfilm": 3482,
      "Ġslept": 3483,
      "Ġpit": 3484,
      "Ġsurf": 3485,
      "Ġmarry": 3486,
      "usia": 3487,
      "Ġwallet": 3488,
      "Ġenthusia": 3489,
      "Ġmetal": 3490,
      "urb": 3491,
      "ebook": 3492,
      "Ġbin": 3493,
      "Ġnotebook": 3494,
      "Ġskip": 3495,
      "Ġwiped": 3496,
      "ision": 3497,
      "chair": 3498,
      "Ġbiggest": 3499,
      "Ġimpro": 3500,
      "Ġavocado": 3501,
      "Ġbehave": 3502,
      "Ġdestroy": 3503,
      "vator": 3504,
      "ĠFo": 3505,
      "Ġbandage": 3506,
      "Ġlaughs": 3507,
      "Ġsteak": 3508,
      "Ġpattern": 3509,
      "Ġpost": 3510,
      "Ġelevator": 3511,
      "Ġdive": 3512,
      "Ġshut": 3513,
      "Ġskipped": 3514,
      "Ġunlock": 3515,
      "Ġdiary": 3516,
      "dest": 3517,
      "ject": 3518,
      "Ġmint": 3519,
      "Ġzebra": 3520,
      "Ġbags": 3521,
      "ating": 3522,
      "Ġarmchair": 3523,
      "rage": 3524,
      "aged": 3525,
      "Ġdisturb": 3526,
      "Ġoy": 3527,
      "Ġpole": 3528,
      "Ġshowing": 3529,
      "Ġclub": 3530,
      "Ġgathered": 3531,
      "Ġnurse": 3532,
      "bul": 3533,
      "Ġearth": 3534,
      "Ġenc": 3535,
      "Sp": 3536,
      "Ġstranger": 3537,
      "Ġsweater": 3538,
      "Ġjellyfish": 3539,
      "Ġscrew": 3540,
      "ĠSusie": 3541,
      "ĠRob": 3542,
      "Ġtemp": 3543,
      "Ġcompl": 3544,
      "Ġmixer": 3545,
      "Give": 3546,
      "Ġskull": 3547,
      "Ġlime": 3548,
      "Ġbump": 3549,
      "bulance": 3550,
      "ĠCl": 3551,
      "Ġambulance": 3552,
      "nam": 3553,
      "Ġfather": 3554,
      "Ġjournal": 3555,
      "Ġloudly": 3556,
      "ito": 3557,
      "Ġfolder": 3558,
      "Ġshield": 3559,
      "Ġlibrary": 3560,
      "Ġbuttons": 3561,
      "Ġplayground": 3562,
      "Ġtrucks": 3563,
      "Ġink": 3564,
      "Ġlights": 3565,
      "Ġtummy": 3566,
      "Ġpointing": 3567,
      "Ġcity": 3568,
      "Ġdecorate": 3569,
      "Ġstation": 3570,
      "irit": 3571,
      "Ġprep": 3572,
      "Ġfalls": 3573,
      "quito": 3574,
      "Ġfu": 3575,
      "ention": 3576,
      "nger": 3577,
      "ĠRose": 3578,
      "Ġherb": 3579,
      "Ġornam": 3580,
      "Ġornament": 3581,
      "Ġmodest": 3582,
      "Ġguard": 3583,
      "lies": 3584,
      "Ġmos": 3585,
      "Ġknows": 3586,
      "Ġcord": 3587,
      "Ġpolish": 3588,
      "Ġmarble": 3589,
      "Ġmosquito": 3590,
      "umbled": 3591,
      "Ġsalt": 3592,
      "Ġattic": 3593,
      "Ġwhenever": 3594,
      "Ġvest": 3595,
      "ctop": 3596,
      "Ġresc": 3597,
      "Ġyet": 3598,
      "Ġple": 3599,
      "Ġdisappeared": 3600,
      "oby": 3601,
      "ceed": 3602,
      "Ġonce": 3603,
      "Ġstrawberry": 3604,
      "Ġkay": 3605,
      "Ġbrothers": 3606,
      "Ġitch": 3607,
      "Ġpirate": 3608,
      "Ġfootball": 3609,
      "Ġsplit": 3610,
      "kele": 3611,
      "keleton": 3612,
      "Ġhipp": 3613,
      "Ġaut": 3614,
      "Ġled": 3615,
      "uring": 3616,
      "ctopus": 3617,
      "Ġdriving": 3618,
      "Ġcable": 3619,
      "Ġsupport": 3620,
      "Ġcalling": 3621,
      "Ġcupboard": 3622,
      "aky": 3623,
      "ĠSunny": 3624,
      "ushed": 3625,
      "Ġwishes": 3626,
      "Ġcomplet": 3627,
      "Ġtripped": 3628,
      "ĠTweet": 3629,
      "ĠPeople": 3630,
      "Ġroot": 3631,
      "Ġkayak": 3632,
      "Ġoctopus": 3633,
      "obile": 3634,
      "Ġadded": 3635,
      "ĠZoom": 3636,
      "Ġedge": 3637,
      "Ġmild": 3638,
      "stic": 3639,
      "Ġdetermined": 3640,
      "Ġsucceed": 3641,
      "?\".": 3642,
      "Ġreading": 3643,
      "omobile": 3644,
      "Ġcoal": 3645,
      "gl": 3646,
      "utes": 3647,
      "Ġsuggest": 3648,
      "par": 3649,
      "Well": 3650,
      "Ġstack": 3651,
      "Ġthunder": 3652,
      "Ġkindness": 3653,
      "Ġautomobile": 3654,
      "Ġcomplain": 3655,
      "Ġenthusiastic": 3656,
      "Ġsneeze": 3657,
      "Ġcartoon": 3658,
      "Ġyoga": 3659,
      "Ġgrowl": 3660,
      "htub": 3661,
      "Ġflea": 3662,
      "Ġmeadow": 3663,
      "Ġdrawer": 3664,
      "Ġbathtub": 3665,
      "Ġribb": 3666,
      "ophone": 3667,
      "Ġhall": 3668,
      "Ġgolf": 3669,
      "Ġmeans": 3670,
      "Ġskeleton": 3671,
      "ĠBetty": 3672,
      "Ġmath": 3673,
      "Ġveil": 3674,
      "Ġhunter": 3675,
      "Re": 3676,
      "Ġgor": 3677,
      "Ġflame": 3678,
      "Ġpoke": 3679,
      "Ġvideo": 3680,
      "Ġchess": 3681,
      "Ġcups": 3682,
      "Ġglowing": 3683,
      "Ġmatt": 3684,
      "Ġoyster": 3685,
      "work": 3686,
      "Ġpenny": 3687,
      "Ġspear": 3688,
      "Ġitself": 3689,
      "essert": 3690,
      "Ġdrawings": 3691,
      "Ġhippo": 3692,
      "Ġrepair": 3693,
      "Ġswitch": 3694,
      "glasses": 3695,
      "Ġsunglasses": 3696,
      "Ġteleph": 3697,
      "Ġcostume": 3698,
      "Ġdessert": 3699,
      "Ġzipp": 3700,
      ",âĢĿ": 3701,
      "Ġrepe": 3702,
      "Ġmuffin": 3703,
      "Ġarg": 3704,
      "Ġpastry": 3705,
      "Ġpun": 3706,
      "Ġrolling": 3707,
      "Ġminutes": 3708,
      "Ġmakeup": 3709,
      "Ġpacked": 3710,
      "iron": 3711,
      "ric": 3712,
      "Ġwaffle": 3713,
      "case": 3714,
      "Ġhandle": 3715,
      "Ġpear": 3716,
      "Ġmaze": 3717,
      "Ġtelephone": 3718,
      "ĠToby": 3719,
      "ophy": 3720,
      "Ġpine": 3721,
      "ait": 3722,
      "ĠPippin": 3723,
      "Ġgear": 3724,
      "Ġhedge": 3725,
      "Ġmattress": 3726,
      "Ġpackage": 3727,
      "aving": 3728,
      "Ġshocked": 3729,
      "ines": 3730,
      "Ġtrophy": 3731,
      "Ġpowder": 3732,
      "Ġknight": 3733,
      "Ġcob": 3734,
      "ĠBessie": 3735,
      "Ġmissile": 3736,
      "Ġframe": 3737,
      "Ġmanaged": 3738,
      "Ġencou": 3739,
      "Ġwife": 3740,
      "Spot": 3741,
      "Ġok": 3742,
      "Ġsepar": 3743,
      "web": 3744,
      "Ġstairs": 3745,
      "Ġrot": 3746,
      "Ġcamp": 3747,
      "time": 3748,
      "rophone": 3749,
      "urch": 3750,
      "Ġmagaz": 3751,
      "Ġstrugg": 3752,
      "Ġcolour": 3753,
      "Ġgrapes": 3754,
      "old": 3755,
      "Ġfile": 3756,
      "ĠZip": 3757,
      "head": 3758,
      "Ġbasketball": 3759,
      "Bye": 3760,
      "per": 3761,
      "Ġcobweb": 3762,
      "Ġperm": 3763,
      "Ġwool": 3764,
      "Ġmicrophone": 3765,
      "esday": 3766,
      "Ġeye": 3767,
      "Ġleash": 3768,
      "Ġgasp": 3769,
      "iew": 3770,
      "keep": 3771,
      "Ġweep": 3772,
      "ĠSpike": 3773,
      "Ġbarking": 3774,
      "ature": 3775,
      "Ġsafely": 3776,
      "Ġtear": 3777,
      "ĠSnow": 3778,
      "Ġview": 3779,
      "Ġslides": 3780,
      "offe": 3781,
      "Ġsteps": 3782,
      "istol": 3783,
      "offee": 3784,
      "Ġbananas": 3785,
      "Ġstaff": 3786,
      "Ġspirit": 3787,
      "Ġtask": 3788,
      "Ġgiggled": 3789,
      "Ġhoc": 3790,
      "ĠLook": 3791,
      "Ġhockey": 3792,
      "Ġvend": 3793,
      "Ġthose": 3794,
      "Ġgorilla": 3795,
      "Ġcooler": 3796,
      "was": 3797,
      "cing": 3798,
      "Ġearly": 3799,
      "Ġmarched": 3800,
      "rosc": 3801,
      "washer": 3802,
      "Ġflour": 3803,
      "Ġhotel": 3804,
      "Ġsailor": 3805,
      "ĠMar": 3806,
      "hic": 3807,
      "Ġphoto": 3808,
      "roscope": 3809,
      "Ġvehic": 3810,
      "ilot": 3811,
      "Ġoft": 3812,
      "Ġoften": 3813,
      "Ġchurch": 3814,
      "Ġcooking": 3815,
      "Ġremain": 3816,
      "ĠNext": 3817,
      "hin": 3818,
      "Ġfive": 3819,
      "ĠMrs": 3820,
      "otter": 3821,
      "Ġsausage": 3822,
      "Ġten": 3823,
      "Ġtools": 3824,
      "See": 3825,
      "Ġmedal": 3826,
      "Ġeither": 3827,
      "Ġfireman": 3828,
      "chor": 3829,
      "Ġgrandpa": 3830,
      "Ġotter": 3831,
      "Ġbaseball": 3832,
      "Ġpistol": 3833,
      "Ġpretending": 3834,
      "Ġdishwasher": 3835,
      "Ġrever": 3836,
      "Ġorganize": 3837,
      "Ġpee": 3838,
      "Ġvendor": 3839,
      "Ġknock": 3840,
      "Ġsight": 3841,
      "Ġgrill": 3842,
      "Ġtemple": 3843,
      "Ġbattery": 3844,
      "Ġthinking": 3845,
      "Ġopens": 3846,
      "Ġow": 3847,
      "ĠKim": 3848,
      "ĠGrandpa": 3849,
      "Ġrealised": 3850,
      "Ġiron": 3851,
      "Ġlaser": 3852,
      "Ġsne": 3853,
      "Ġoil": 3854,
      "Ġsandbox": 3855,
      "ĠUn": 3856,
      "Ġpatch": 3857,
      "Ġhours": 3858,
      "Ġrise": 3859,
      "Ġwhip": 3860,
      "'d": 3861,
      "ne": 3862,
      "ctory": 3863,
      "ĠGive": 3864,
      "Ġanchor": 3865,
      "Ġtrash": 3866,
      "Ġskirt": 3867,
      "ense": 3868,
      "Ġshort": 3869,
      "ney": 3870,
      "Ġrhin": 3871,
      "Ġfactory": 3872,
      "seum": 3873,
      "Ġmay": 3874,
      "Ġward": 3875,
      "ately": 3876,
      "Ġcardboard": 3877,
      "ugged": 3878,
      "Ġlotion": 3879,
      "Ġmessage": 3880,
      "Ġvalu": 3881,
      "Ġwardrobe": 3882,
      "Ġcell": 3883,
      "Ġmuseum": 3884,
      "apers": 3885,
      "Ġur": 3886,
      "ination": 3887,
      "Ġhanging": 3888,
      "eer": 3889,
      "ucet": 3890,
      "ailable": 3891,
      "Ġhive": 3892,
      "Ġtowers": 3893,
      "keeper": 3894,
      "Ġblackboard": 3895,
      "Ġmem": 3896,
      "Ġexcitement": 3897,
      "Ġcoffee": 3898,
      "Ġpilot": 3899,
      "ready": 3900,
      "Ġnapkin": 3901,
      "Ġpenguin": 3902,
      "Ġcheck": 3903,
      "loo": 3904,
      "ron": 3905,
      "Ġreward": 3906,
      "Ġquit": 3907,
      "Ġcane": 3908,
      "Ġpicking": 3909,
      "place": 3910,
      "azor": 3911,
      "Ġig": 3912,
      "Ġfaucet": 3913,
      "Ġpassport": 3914,
      "Ġstumbled": 3915,
      "Ġdreamed": 3916,
      "Ġigloo": 3917,
      "enny": 3918,
      "aroo": 3919,
      "angaroo": 3920,
      "Ġfreez": 3921,
      "Ġjuicy": 3922,
      "Ġallowed": 3923,
      "play": 3924,
      "Ġholds": 3925,
      "Ġalready": 3926,
      "Ġavailable": 3927,
      "Ġsett": 3928,
      "Ġbathe": 3929,
      "ĠEverywhere": 3930,
      "Ġtornado": 3931,
      "imney": 3932,
      "Ġfingers": 3933,
      "htray": 3934,
      "Ġhanger": 3935,
      "Ġnewsp": 3936,
      "Ġsize": 3937,
      "Ġlaund": 3938,
      "Ġlend": 3939,
      "Ġchimney": 3940,
      "ĠBefore": 3941,
      "Ġlaundry": 3942,
      "Ġoak": 3943,
      "Ġfisher": 3944,
      "Ġkangaroo": 3945,
      "Ġmen": 3946,
      "Ġtelling": 3947,
      "Ġnovel": 3948,
      "body": 3949,
      "Ġmummy": 3950,
      "Ġpal": 3951,
      "Ġmule": 3952,
      "Ġcherries": 3953,
      "Ġnotice": 3954,
      "Ġpractice": 3955,
      "Ġspilled": 3956,
      "Ġreind": 3957,
      "Ġcomplete": 3958,
      "Ġenjoying": 3959,
      "Ġmicroscope": 3960,
      "Ġgain": 3961,
      "ampoo": 3962,
      "Ġsub": 3963,
      "Ġfireplace": 3964,
      "Ġimagine": 3965,
      "anda": 3966,
      "Ġdisplay": 3967,
      "ocer": 3968,
      "Ġfastest": 3969,
      "Ġmagazine": 3970,
      "Ġhurry": 3971,
      "Ġcabinet": 3972,
      "Ġshrink": 3973,
      "ĠTeddy": 3974,
      "Ġashtray": 3975,
      "Wait": 3976,
      "Ġcows": 3977,
      "gen": 3978,
      "Ġpalace": 3979,
      "Ġimprove": 3980,
      "aches": 3981,
      "arian": 3982,
      "Ġrake": 3983,
      "Ġreindeer": 3984,
      "Ġfalling": 3985,
      "ilet": 3986,
      "oceros": 3987,
      "ured": 3988,
      "ĠMandy": 3989,
      "Ġdiscovered": 3990,
      "Ġstared": 3991,
      "Ġroared": 3992,
      "aid": 3993,
      "Ġsilver": 3994,
      "Ġtub": 3995,
      "Ġtrail": 3996,
      "Ġminer": 3997,
      "There": 3998,
      "come": 3999,
      "Ġbill": 4000,
      "Ġfog": 4001,
      "iction": 4002,
      "Ġax": 4003,
      "stairs": 4004,
      "Ġhut": 4005,
      "Ġhappier": 4006,
      "Ġtoilet": 4007,
      "Ġtaller": 4008,
      "ictionary": 4009,
      "Ġoats": 4010,
      "Ġfisherman": 4011,
      "Ġobject": 4012,
      "Ġpor": 4013,
      "vision": 4014,
      "Ġvaluable": 4015,
      "Ġshampoo": 4016,
      "ĠHere": 4017,
      "Ġholes": 4018,
      "Ġoffered": 4019,
      "Ġboots": 4020,
      "Ġrhinoceros": 4021,
      "Ġnames": 4022,
      "ĠDolly": 4023,
      "Ġclimbing": 4024,
      "Ġblin": 4025,
      "vice": 4026,
      "Ġstretched": 4027,
      "iest": 4028,
      "Ġzipper": 4029,
      "Is": 4030,
      "Ġlistening": 4031,
      "Ġsym": 4032,
      "Ġbathrobe": 4033,
      "alend": 4034,
      "Ġjewelry": 4035,
      "Ġjokes": 4036,
      "Ġtelevision": 4037,
      "Ġprov": 4038,
      "Ġcalend": 4039,
      "Ġstops": 4040,
      "Ġaxe": 4041,
      "Ġjumps": 4042,
      "Ġfuel": 4043,
      "cu": 4044,
      "Ġsparkly": 4045,
      "Ġperfume": 4046,
      "Ġbury": 4047,
      "bol": 4048,
      "Ġpressed": 4049,
      "Ow": 4050,
      "lu": 4051,
      "reek": 4052,
      "Ġrece": 4053,
      "Ġneat": 4054,
      "Ġcreek": 4055,
      "Ġpopped": 4056,
      "Ġopera": 4057,
      "Ġcalendar": 4058,
      "Ġsnap": 4059,
      "Ġattach": 4060,
      "Ġgasped": 4061,
      "Ġsymbol": 4062,
      "Ġtuna": 4063,
      "Ġpapers": 4064,
      "Ġunpack": 4065,
      "Ġresist": 4066,
      "Ġdictionary": 4067,
      "Ġsubway": 4068,
      "Ġletters": 4069,
      "Ġfreezer": 4070,
      "Ġchose": 4071,
      "Ġpinch": 4072,
      "ĠMike": 4073,
      "zag": 4074,
      "Ġspoke": 4075,
      "Ġanyway": 4076,
      "Ġsuper": 4077,
      "Ġhelper": 4078,
      "Ġporch": 4079,
      "affe": 4080,
      "Ġbikes": 4081,
      "Ġlie": 4082,
      "iches": 4083,
      "Ġcomfort": 4084,
      "Ġtightly": 4085,
      "Ġshaking": 4086,
      "Ġbookcase": 4087,
      "ĠPandy": 4088,
      "Ġson": 4089,
      "ĠAre": 4090,
      "Ġrazor": 4091,
      "aurant": 4092,
      "Ġsandwiches": 4093,
      "arry": 4094,
      "Ġext": 4095,
      "igzag": 4096,
      "Ġweigh": 4097,
      "Ġagainst": 4098,
      "Ġstickers": 4099,
      "Ġrestaurant": 4100,
      "Ġnewspaper": 4101,
      "Ġblouse": 4102,
      "te": 4103,
      "Ġvehicle": 4104,
      "Ġswinging": 4105,
      "Ġped": 4106,
      "Ġdisag": 4107,
      "Ġnature": 4108,
      "Ġsquirrels": 4109,
      "Ġbelongs": 4110,
      "ival": 4111,
      "Ġswamp": 4112,
      "Ġbutterflies": 4113,
      "Ġgym": 4114,
      "del": 4115,
      "Ġinclu": 4116,
      "Ġgrowing": 4117,
      "Ġbuckle": 4118,
      "omed": 4119,
      "Ġstirred": 4120,
      "Ġmustache": 4121,
      "Ġbillboard": 4122,
      "xy": 4123,
      "Ġbeep": 4124,
      "Ġalarm": 4125,
      "Ġlip": 4126,
      "Ġfest": 4127,
      "Ġlightning": 4128,
      "Ġhung": 4129,
      "utor": 4130,
      "Ġdistance": 4131,
      "Ġcards": 4132,
      "ogn": 4133,
      "Ġobser": 4134,
      "Ġagree": 4135,
      "Ġtease": 4136,
      "Ġrecogn": 4137,
      "Ġrubber": 4138,
      "ik": 4139,
      "Ġhate": 4140,
      "Ġsof": 4141,
      "fast": 4142,
      "Ġdoesn": 4143,
      "Ġmusician": 4144,
      "Ġadvice": 4145,
      "Ġfort": 4146,
      "Ġbeef": 4147,
      "Ġserve": 4148,
      "Ouch": 4149,
      "aspoon": 4150,
      "Ġsweetie": 4151,
      "ef": 4152,
      "Ġmodel": 4153,
      "lter": 4154,
      "Ġblueberries": 4155,
      "Ġcrib": 4156,
      "Ġsofa": 4157,
      "Ġcircles": 4158,
      "Ġbreakfast": 4159,
      "Ġtutor": 4160,
      "asis": 4161,
      "Ġbookshe": 4162,
      "ĠEllie": 4163,
      "Ġgiraffe": 4164,
      "stri": 4165,
      "Ġfestival": 4166,
      "Ġseparate": 4167,
      "Ġshelter": 4168,
      "Ġgas": 4169,
      "Ġairport": 4170,
      "Ġolive": 4171,
      "ĠCo": 4172,
      "ĠDave": 4173,
      "Ġrail": 4174,
      "Ġbookshelf": 4175,
      "Ġfrogs": 4176,
      "Ġteaspoon": 4177,
      "Ġreverse": 4178,
      "Ġjunk": 4179,
      "Ġriding": 4180,
      "Ġpleased": 4181,
      "Ġdrain": 4182,
      "Ġwipe": 4183,
      "Ġoasis": 4184,
      "Ġsoil": 4185,
      "Ġahead": 4186,
      "Ġrescue": 4187,
      "Ġleaving": 4188,
      "ĠBill": 4189,
      "ummer": 4190,
      "ĠBubb": 4191,
      "Ġpainter": 4192,
      "Ġchance": 4193,
      "Ġsqueeze": 4194,
      "Ġknob": 4195,
      "Ġpoked": 4196,
      "Ġpeeked": 4197,
      "Ġlumber": 4198,
      "Dad": 4199,
      "Ġtrains": 4200,
      "la": 4201,
      "Ġextra": 4202,
      "Ġslipp": 4203,
      "ĠJohnny": 4204,
      "Ġquiz": 4205,
      "Ġrefused": 4206,
      "res": 4207,
      "rmomet": 4208,
      "Ġpage": 4209,
      "Ġrules": 4210,
      "Ġhappens": 4211,
      "Ġins": 4212,
      "Ġsounded": 4213,
      "Ġwinter": 4214,
      "ĠV": 4215,
      "Ġdancer": 4216,
      "Ġbirdc": 4217,
      "Ġdisappear": 4218,
      "rmometer": 4219,
      "ĠCarl": 4220,
      "Ġwaste": 4221,
      "Ġweather": 4222,
      "Ġlic": 4223,
      "Ġbirdcage": 4224,
      "Ġtheater": 4225,
      "Ġreef": 4226,
      "Ġcarrying": 4227,
      "ĠSpe": 4228,
      "Ġinvite": 4229,
      "ĠBow": 4230,
      "iform": 4231,
      "Ġgoal": 4232,
      "Ġostri": 4233,
      "Ġswung": 4234,
      "Ġuniform": 4235,
      "Ġtrade": 4236,
      "Ġcliff": 4237,
      "ience": 4238,
      "Ġlawn": 4239,
      "ola": 4240,
      "Ġleaned": 4241,
      "angu": 4242,
      "Ġaccept": 4243,
      "ĠBoun": 4244,
      "They": 4245,
      "Ġadmire": 4246,
      "Ġaccidentally": 4247,
      "Ġpastel": 4248,
      "Ġstom": 4249,
      "Ġlangu": 4250,
      "ĠLee": 4251,
      "Ġtwir": 4252,
      "Ġsuff": 4253,
      "Ġpanda": 4254,
      "na": 4255,
      "riger": 4256,
      "Ġbet": 4257,
      "rigerator": 4258,
      "Ġpeek": 4259,
      "render": 4260,
      "Ġblinked": 4261,
      "Ġstarts": 4262,
      "Ġrefrigerator": 4263,
      "Ġanywhere": 4264,
      "!\".": 4265,
      "Ġimagined": 4266,
      "Ġdreaming": 4267,
      "Ġremove": 4268,
      "night": 4269,
      "Ġshower": 4270,
      "Ġceiling": 4271,
      "Ġclassroom": 4272,
      "Ġcaring": 4273,
      "ĠBuzzy": 4274,
      "ium": 4275,
      "ĠSoph": 4276,
      "ĠWhere": 4277,
      "Ġgrand": 4278,
      "ĠJazz": 4279,
      "Ġmissing": 4280,
      "aked": 4281,
      "Ġlicense": 4282,
      "Ġstable": 4283,
      "Ġthermometer": 4284,
      "ĠBig": 4285,
      "Ġmonkeys": 4286,
      "astic": 4287,
      "Ġwarned": 4288,
      "Ġsummer": 4289,
      "Ġabove": 4290,
      "Ġbrick": 4291,
      "ected": 4292,
      "Ġcudd": 4293,
      "med": 4294,
      "ĠPat": 4295,
      "Ġproblems": 4296,
      "amber": 4297,
      "Ġchasing": 4298,
      "Ġapron": 4299,
      "Ġlabel": 4300,
      "Ġsent": 4301,
      "iture": 4302,
      "urniture": 4303,
      "Ġlawy": 4304,
      "Ġlid": 4305,
      "uggage": 4306,
      "ĠBinky": 4307,
      "Ġrespectful": 4308,
      "Ġfurniture": 4309,
      "Ġfrowned": 4310,
      "Ġzoomed": 4311,
      "Ġpages": 4312,
      "Ġprevent": 4313,
      "Ġbent": 4314,
      "ĠEventually": 4315,
      "Ġluggage": 4316,
      "ĠRed": 4317,
      "ĠLola": 4318,
      "Ġmistakes": 4319,
      "Ġsunset": 4320,
      "Ġostrich": 4321,
      "He": 4322,
      "ison": 4323,
      "Ġsuggested": 4324,
      "Ġwindows": 4325,
      "ations": 4326,
      "Ġjail": 4327,
      "Ġwine": 4328,
      "ĠFreddy": 4329,
      "Ġribbon": 4330,
      "Ġolder": 4331,
      "Ġshouts": 4332,
      "Ġgrape": 4333,
      "Ġwigg": 4334,
      "ucture": 4335,
      "Ġstructure": 4336,
      "Ġspoil": 4337,
      "eor": 4338,
      "Ġfixing": 4339,
      "Ġchamber": 4340,
      "Ġlions": 4341,
      "Ġdelay": 4342,
      "Ġfinds": 4343,
      "Ġhanded": 4344,
      "Ġsearching": 4345,
      "Ġunite": 4346,
      "Ġfought": 4347,
      "Ġlawyer": 4348,
      "Ġbrightly": 4349,
      "Ġmeeting": 4350,
      "Ġpair": 4351,
      "Did": 4352,
      "Ġchoice": 4353,
      "Ġart": 4354,
      "ĠHel": 4355,
      "Ġsurprises": 4356,
      "Ġfavour": 4357,
      "eterin": 4358,
      "adium": 4359,
      "eterinarian": 4360,
      "ĠY": 4361,
      "Ġstadium": 4362,
      "low": 4363,
      "Ġproudly": 4364,
      "iki": 4365,
      "ĠGeor": 4366,
      "Ġveterinarian": 4367,
      "vet": 4368,
      "Ġchairs": 4369,
      "Ġslip": 4370,
      "rod": 4371,
      "Ann": 4372,
      "Ġsadly": 4373,
      "Ġincre": 4374,
      "Ġpuddles": 4375,
      "Ġberry": 4376,
      "Ġintrod": 4377,
      "Ġranch": 4378,
      "veal": 4379,
      "Ġargue": 4380,
      "Ġadmired": 4381,
      "ĠOlive": 4382,
      "Ġcur": 4383,
      "Ġfavourite": 4384,
      "ĠPa": 4385,
      "Ġinf": 4386,
      "Your": 4387,
      "Ġexcitedly": 4388,
      "Ġrac": 4389,
      "Ġgrabs": 4390,
      "mend": 4391,
      "Ġsteam": 4392,
      "thank": 4393,
      "Ġhuman": 4394,
      "ĠRu": 4395,
      "sity": 4396,
      "ĠSpeedy": 4397,
      "Ġpushing": 4398,
      "Ġsaving": 4399,
      "Ġreveal": 4400,
      "ommend": 4401,
      "Ġyield": 4402,
      "alley": 4403,
      "olog": 4404,
      "Ġmall": 4405,
      "Ġreminded": 4406,
      "Ġrecommend": 4407,
      "Ġleak": 4408,
      "Ġsurrender": 4409,
      "Ġharb": 4410,
      "Ġappl": 4411,
      "cuss": 4412,
      "Ġweap": 4413,
      "Ġregret": 4414,
      "Ġputting": 4415,
      "Ġvalley": 4416,
      "ĠBubbles": 4417,
      "ĠGeorge": 4418,
      "ĠLilly": 4419,
      "Ġmineral": 4420,
      "Ġevening": 4421,
      "elcome": 4422,
      "Ġforgave": 4423,
      "Ġmatches": 4424,
      "Ġsneezed": 4425,
      "Ġaw": 4426,
      "Ġpup": 4427,
      "Ġrushed": 4428,
      "ecause": 4429,
      "Ġspade": 4430,
      "Ġapolog": 4431,
      "Ġplates": 4432,
      "Ġdiscuss": 4433,
      "Ġprepare": 4434,
      "Ġharbor": 4435,
      "Ġignore": 4436,
      "ĠOw": 4437,
      "Ġcountry": 4438,
      "Ġlanguage": 4439,
      "Ġpulls": 4440,
      "Ġplastic": 4441,
      "Ġsupply": 4442,
      "Ġfloat": 4443,
      "Ġsniffed": 4444,
      "Ġreplace": 4445,
      "Ġmeas": 4446,
      "Ġshovel": 4447,
      "Ġraise": 4448,
      "Ġstrip": 4449,
      "Ġfre": 4450,
      "Ġcared": 4451,
      "Ġsocks": 4452,
      "Ġdoors": 4453,
      "Ġmystery": 4454,
      "Ġlives": 4455,
      "Ġrestore": 4456,
      "Ġsticker": 4457,
      "Ġsudden": 4458,
      "ero": 4459,
      "Ġkinds": 4460,
      "ĠPaul": 4461,
      "Ġslippery": 4462,
      "Ġplayer": 4463,
      "ĠZoomy": 4464,
      "Ġpanic": 4465,
      "Ġhoping": 4466,
      "ĠUnder": 4467,
      "ricane": 4468,
      "iday": 4469,
      "Ġshone": 4470,
      "lex": 4471,
      "ari": 4472,
      "hero": 4473,
      "Ġbeg": 4474,
      "Anna": 4475,
      "Ġsuperhero": 4476,
      "ĠKiki": 4477,
      "Ġdelighted": 4478,
      "Ġgro": 4479,
      "..": 4480,
      "aud": 4481,
      "chan": 4482,
      "Ġchickens": 4483,
      "ĠCharl": 4484,
      "Ġshoulder": 4485,
      "Ġrained": 4486,
      "Ġcolourful": 4487,
      "Ġbreat": 4488,
      "Ġclaw": 4489,
      "Ġsoftly": 4490,
      "rise": 4491,
      "Ġport": 4492,
      "Ġhol": 4493,
      "icer": 4494,
      "Ġholiday": 4495,
      "oof": 4496,
      "Ġbarks": 4497,
      "ason": 4498,
      "Ġthrowing": 4499,
      "Ġplanes": 4500,
      "Ġbend": 4501,
      "Yay": 4502,
      "Ġshakes": 4503,
      "oe": 4504,
      "Ġended": 4505,
      "Ġinfant": 4506,
      "Ġshivering": 4507,
      "Ġkneel": 4508,
      "Ġsunrise": 4509,
      "Yuck": 4510,
      "Ġpushes": 4511,
      "Ġthanks": 4512,
      "Ġfresh": 4513,
      "Ġsuffer": 4514,
      "Ġpoints": 4515,
      "imed": 4516,
      "wards": 4517,
      "Ġtip": 4518,
      "Ġfreeze": 4519,
      "Ġkeeping": 4520,
      "ĠWould": 4521,
      "Ġcopper": 4522,
      "Ġgiggle": 4523,
      "ĠAlex": 4524,
      "Ġsmells": 4525,
      "Ġdear": 4526,
      "Ġenter": 4527,
      "Ġprovide": 4528,
      "ĠEnd": 4529,
      "cast": 4530,
      "chanic": 4531,
      "Ġdishes": 4532,
      "cond": 4533,
      "Ġunh": 4534,
      "Ġapplaud": 4535,
      "Ġheads": 4536,
      "Ġhurricane": 4537,
      "ĠTed": 4538,
      "Ġcherry": 4539,
      "Ġmass": 4540,
      "Ġthumb": 4541,
      "Ġmeowed": 4542,
      "Ġmenu": 4543,
      "Ġsecond": 4544,
      "Ġbrighter": 4545,
      "ince": 4546,
      "Ġsandcast": 4547,
      "Ġmechanic": 4548,
      "Ġwre": 4549,
      "Mia": 4550,
      "ĠDanny": 4551,
      "Ġsprayed": 4552,
      "Ġevent": 4553,
      "Ġletting": 4554,
      "Ġweapon": 4555,
      "Ġlaught": 4556,
      "Ġx": 4557,
      "Ġlaughter": 4558,
      "ĠGrace": 4559,
      "Ġclapping": 4560,
      "Ġfeelings": 4561,
      "ĠOr": 4562,
      "icky": 4563,
      "Ġsplashing": 4564,
      "ement": 4565,
      "acked": 4566,
      "Ġcastles": 4567,
      "ĠJoey": 4568,
      "One": 4569,
      "cer": 4570,
      "Ġscore": 4571,
      "apping": 4572,
      "Ġuniverse": 4573,
      "Ġnavy": 4574,
      "ĠHoppy": 4575,
      "Ġdem": 4576,
      "Ġsticky": 4577,
      "Ġrow": 4578,
      "Ġrooms": 4579,
      "Ġflies": 4580,
      "igi": 4581,
      "Ġunhappy": 4582,
      "Ġgreedy": 4583,
      "ĠSophie": 4584,
      "Ġdare": 4585,
      "Ġalive": 4586,
      "Ġbreaks": 4587,
      "Ġener": 4588,
      "ĠBee": 4589,
      "Ġcourage": 4590,
      "Ġinvit": 4591,
      "Ġrepeat": 4592,
      "Ġdemand": 4593,
      "Ready": 4594,
      "ĠGigi": 4595,
      "Ġtrusted": 4596,
      "Ġsomewhere": 4597,
      "Ġprune": 4598,
      "bles": 4599,
      "Ġwreck": 4600,
      "Ġskill": 4601,
      "Ġexamine": 4602,
      "Ġparts": 4603,
      "ĠHen": 4604,
      "year": 4605,
      "Ġeaten": 4606,
      "erc": 4607,
      "Ġmention": 4608,
      "ĠHelp": 4609,
      "Ġraining": 4610,
      "ĠAnnie": 4611,
      "Ġthrows": 4612,
      "Ġjogged": 4613,
      "quest": 4614,
      "Ġstarting": 4615,
      "Ġrush": 4616,
      "ĠCharlie": 4617,
      "ĠSque": 4618,
      "Ġchirp": 4619,
      "Ġpoison": 4620,
      "Ġpirates": 4621,
      "heart": 4622,
      "Ġvac": 4623,
      "Ġcontent": 4624,
      "ĠSu": 4625,
      "Ġsigh": 4626,
      "Ġflapped": 4627,
      "Ġdrops": 4628,
      "Ġsport": 4629,
      "Qu": 4630,
      "Ġsparkled": 4631,
      "ĠHenry": 4632,
      "Ġgiven": 4633,
      "Ġstreng": 4634,
      "Ġsteel": 4635,
      "Ġbumped": 4636,
      "Ġyawned": 4637,
      "Ġstud": 4638,
      "Ġrequest": 4639,
      "Ġscold": 4640,
      "Ġmyself": 4641,
      "Ġstrength": 4642,
      "Ġshrugged": 4643,
      "Ġcoats": 4644,
      "Ġpunish": 4645,
      "Ġequ": 4646,
      "Ġsnugg": 4647,
      "ĠSm": 4648,
      "Ġuniversity": 4649,
      "Ġpaid": 4650,
      "Ġpigs": 4651,
      "Ġscratch": 4652,
      "Ġtoe": 4653,
      "Ġexerc": 4654,
      "Ġtracks": 4655,
      "Ġupstairs": 4656,
      "Ġprayed": 4657,
      "Ġcrossed": 4658,
      "Ġsqueezed": 4659,
      "Ġflood": 4660,
      "Ġimpressed": 4661,
      "Ġexpect": 4662,
      "Ġbouncing": 4663,
      "Ġrhy": 4664,
      "Ġrabbits": 4665,
      "ges": 4666,
      "Ġbadly": 4667,
      "Ġleather": 4668,
      "Ġwarn": 4669,
      "Ġnews": 4670,
      "Ġtide": 4671,
      "ĠLucky": 4672,
      "Ġminute": 4673,
      "ĠSnowy": 4674,
      "Ġbears": 4675,
      "Ġclaws": 4676,
      "Ġbuzz": 4677,
      "Ġsweetheart": 4678,
      "Ġnation": 4679,
      "ĠSk": 4680,
      "thm": 4681,
      "Ġheat": 4682,
      "Ġhist": 4683,
      "Ġvacation": 4684,
      "Ġstrawberries": 4685,
      "Ġobserve": 4686,
      "Ġexplored": 4687,
      "Ġsettle": 4688,
      "Ġsandcastle": 4689,
      "Ġyawn": 4690,
      "Ġhistory": 4691,
      "ĠFinny": 4692,
      "mare": 4693,
      "ĠSee": 4694,
      "ĠFinn": 4695,
      "ially": 4696,
      "inking": 4697,
      "Ġbelieved": 4698,
      "Ġhorses": 4699,
      "ĠElly": 4700,
      "Ġchecked": 4701,
      "Ġtour": 4702,
      "Ġnetwork": 4703,
      "Ġcheek": 4704,
      "Ġoffer": 4705,
      "Ġeasily": 4706,
      "Ġplaced": 4707,
      "spec": 4708,
      "Ġspots": 4709,
      "Ġsnowball": 4710,
      "ween": 4711,
      "men": 4712,
      "Ġenergy": 4713,
      "Ġimagination": 4714,
      "Ġblueberry": 4715,
      "otten": 4716,
      "Ġbetween": 4717,
      "specially": 4718,
      "izes": 4719,
      "Ġdaisy": 4720,
      "Ġwaving": 4721,
      "reeze": 4722,
      "reat": 4723,
      "ĠHarry": 4724,
      "ĠFox": 4725,
      "ĠTilly": 4726,
      "Ġvroom": 4727,
      "Ġsoak": 4728,
      "Ġsafari": 4729,
      "Ġrhythm": 4730,
      "Ġmassage": 4731,
      "Ġstomach": 4732,
      "Ġbaking": 4733,
      "quake": 4734,
      "Ġnightmare": 4735,
      "Ġinsisted": 4736,
      "Ġblowing": 4737,
      "Ġentered": 4738,
      "Ġstair": 4739,
      "Ġpalm": 4740,
      "Ġbeauty": 4741,
      "Ġtwisted": 4742,
      "Ġbother": 4743,
      "Ġwriting": 4744,
      "Ġscoop": 4745,
      "Ġprunes": 4746,
      "Ġbrain": 4747,
      "Ġing": 4748,
      "ĠPenny": 4749,
      "ipment": 4750,
      "Ġpoppy": 4751,
      "Ġhills": 4752,
      "noon": 4753,
      "Ġafternoon": 4754,
      "Ġespecially": 4755,
      "Ġequipment": 4756,
      "hest": 4757,
      "Ġsir": 4758,
      "Ġpad": 4759,
      "Ġingred": 4760,
      "Ġcalls": 4761,
      "Ġingredient": 4762,
      "Ġearthquake": 4763,
      "Ġignored": 4764,
      "Ġburned": 4765,
      "Ġnobody": 4766,
      "mble": 4767,
      "Ġsty": 4768,
      "apa": 4769,
      "Ġsew": 4770,
      "Ġtug": 4771,
      "isty": 4772,
      "Ġhearts": 4773,
      "xygen": 4774,
      "Ġlear": 4775,
      "Ġlearnt": 4776,
      "Ġlemonade": 4777,
      "Sh": 4778,
      "Ġincrease": 4779,
      "ĠMaria": 4780,
      "Ġgaz": 4781,
      "Ġbackpack": 4782,
      "Ġmailman": 4783,
      "Ġwhistled": 4784,
      "Ġpedal": 4785,
      "Ġshopkeeper": 4786,
      "ffic": 4787,
      "Ġpermit": 4788,
      "Ġtremble": 4789,
      "ĠMill": 4790,
      "Ġyucky": 4791,
      "anges": 4792,
      "Ġmoves": 4793,
      "ĠZara": 4794,
      "Ġintroduce": 4795,
      "Ġlemons": 4796,
      "Ġcrash": 4797,
      "Ġbeans": 4798,
      "ĠMag": 4799,
      "Ġfloated": 4800,
      "edn": 4801,
      "ednesday": 4802,
      "ittens": 4803,
      "ĠWednesday": 4804,
      "Ġplanned": 4805,
      "ĠCoco": 4806,
      "Welcome": 4807,
      "ĠRos": 4808,
      "Ġstrike": 4809,
      "Ġtraffic": 4810,
      "Lucy": 4811,
      "Ġinclude": 4812,
      "Ġslap": 4813,
      "Ġracing": 4814,
      "resses": 4815,
      "ĠWhenever": 4816,
      "Ġwisdom": 4817,
      "Ġpur": 4818,
      "Ġwags": 4819,
      "laimed": 4820,
      "Ġluck": 4821,
      "Ġfollowing": 4822,
      "Ġprice": 4823,
      "ecting": 4824,
      "Ġmama": 4825,
      "Ġpitch": 4826,
      "Ġbelow": 4827,
      "ĠHave": 4828,
      "ĠSandy": 4829,
      "ĠPip": 4830,
      "ĠSqueaky": 4831,
      "Ġweight": 4832,
      "Ġexclaimed": 4833,
      "house": 4834,
      "ĠOwl": 4835,
      "uct": 4836,
      "Ġburied": 4837,
      "Ġcomf": 4838,
      "Ġfollows": 4839,
      "Ġrecognize": 4840,
      "Ġingredients": 4841,
      "ĠFroggy": 4842,
      "ĠMittens": 4843,
      "ĠDog": 4844,
      "Ġfurt": 4845,
      "tain": 4846,
      "Ġcandles": 4847,
      "ĠBounce": 4848,
      "Ġmarbles": 4849,
      "riage": 4850,
      "unday": 4851,
      "emember": 4852,
      "eration": 4853,
      "ĠSunday": 4854,
      "Ġapart": 4855,
      "Ġgrowled": 4856,
      "ĠIs": 4857,
      "ĠWho": 4858,
      "ores": 4859,
      "Ġconf": 4860,
      "Ġhopes": 4861,
      "Ġteaching": 4862,
      "Ġfolded": 4863,
      "Ġclosely": 4864,
      "Ġheel": 4865,
      "Ġencourage": 4866,
      "ĠKate": 4867,
      "Ġzigzag": 4868,
      "Ġpulling": 4869,
      "Ġdigg": 4870,
      "Ġbouncy": 4871,
      "ĠMillie": 4872,
      "ippy": 4873,
      "Ġfurther": 4874,
      "Ġchewed": 4875,
      "Ġdigging": 4876,
      "Ġwinning": 4877,
      "nce": 4878,
      "Woof": 4879,
      "Ġdresses": 4880,
      "Ġimage": 4881,
      "rec": 4882,
      "cery": 4883,
      "Ġshouting": 4884,
      "ĠRock": 4885,
      "Ġgrocery": 4886,
      "Ġtwisty": 4887,
      "Sara": 4888,
      "Ġpeanuts": 4889,
      "Ġpuzzles": 4890,
      "ĠJames": 4891,
      "bbing": 4892,
      "look": 4893,
      "Ġscrat": 4894,
      "Ġchores": 4895,
      "Ġwhisper": 4896,
      "Ġspike": 4897,
      "Ġcape": 4898,
      "Ġsnail": 4899,
      "Ġacorns": 4900,
      "Ġworms": 4901,
      "hood": 4902,
      "ĠTw": 4903,
      "Ġdeeper": 4904,
      "Ġurge": 4905,
      "ĠPinky": 4906,
      "ifi": 4907,
      "ĠRo": 4908,
      "ĠTony": 4909,
      "ĠBluey": 4910,
      "Ġplanted": 4911,
      "Ġattention": 4912,
      "ecture": 4913,
      "Ġexercise": 4914,
      "ĠBaby": 4915,
      "ĠPapa": 4916,
      "Ġexper": 4917,
      "Ġcub": 4918,
      "Ġoperation": 4919,
      "Ġunderground": 4920,
      "Ġhon": 4921,
      "Ġagre": 4922,
      "Ġquite": 4923,
      "Ġcreatures": 4924,
      "Ġsimp": 4925,
      "Ġstruggle": 4926,
      "oral": 4927,
      "ddy": 4928,
      "Ġblood": 4929,
      "Ġlecture": 4930,
      "ĠFifi": 4931,
      "Ġwashing": 4932,
      "ĠMay": 4933,
      "Ġhurting": 4934,
      "Ġgifts": 4935,
      "Ġvanished": 4936,
      "ĠSharing": 4937,
      "Ġdressed": 4938,
      "Ġinvitation": 4939,
      "Ġsolved": 4940,
      "Ġlicks": 4941,
      "Ġsnuggled": 4942,
      "ĠRuby": 4943,
      "Ġble": 4944,
      "Ġmarriage": 4945,
      "Ġquietly": 4946,
      "gie": 4947,
      "To": 4948,
      "Ġwarning": 4949,
      "Ġjazz": 4950,
      "Ġbreathe": 4951,
      "reci": 4952,
      "Ġelephants": 4953,
      "ĠTu": 4954,
      "Ġsizes": 4955,
      "Bob": 4956,
      "Ġdried": 4957,
      "Ġfallen": 4958,
      "Ġlandscape": 4959,
      "ories": 4960,
      "Ġsprink": 4961,
      "Ġneighbour": 4962,
      "Ġmice": 4963,
      "Ġappreci": 4964,
      "ĠTuesday": 4965,
      "ĠâĢĵ": 4966,
      "Ġeagerly": 4967,
      "Ġsailing": 4968,
      "ĠGood": 4969,
      "Ġpaused": 4970,
      "ips": 4971,
      "Ġcounter": 4972,
      "And": 4973,
      "Ġworth": 4974,
      "looking": 4975,
      "ĠLiz": 4976,
      "ĠFirst": 4977,
      "Ġoxygen": 4978,
      "Ġrelease": 4979,
      "Ġshined": 4980,
      "pted": 4981,
      "Ġreaches": 4982,
      "Ġbalan": 4983,
      "isses": 4984,
      "Ġoh": 4985,
      "Ġkisses": 4986,
      "Ġstyle": 4987,
      "Ġbricks": 4988,
      "Ġplays": 4989,
      "Ġglo": 4990,
      "Ġideas": 4991,
      "sed": 4992,
      "Ġinst": 4993,
      "ĠSte": 4994,
      "Ġwob": 4995,
      "Ġfireworks": 4996,
      "Will": 4997,
      "ĠKat": 4998,
      "ĠEverything": 4999,
      "iggly": 5000,
      "ucked": 5001,
      "Ġseeing": 5002,
      "Ġflap": 5003,
      "Ġaccepted": 5004,
      "Ġblink": 5005,
      "mm": 5006,
      "Ġtremb": 5007,
      "Ġmuddy": 5008,
      "Ġmemory": 5009,
      "Ġmarried": 5010,
      "Ġtomatoes": 5011,
      "Ġexit": 5012,
      "These": 5013,
      "ops": 5014,
      "Ġwagging": 5015,
      "Ġfash": 5016,
      "ĠJul": 5017,
      "Ġwandered": 5018,
      "unately": 5019,
      "ipping": 5020,
      "right": 5021,
      "Ġgloves": 5022,
      "ĠEach": 5023,
      "Ġcaptain": 5024,
      "Ġpillows": 5025,
      "Ġreceive": 5026,
      "Ġresp": 5027,
      "raged": 5028,
      "Ġduring": 5029,
      "Not": 5030,
      "etch": 5031,
      "Ġweb": 5032,
      "Ġpetals": 5033,
      "Ġwatered": 5034,
      "Because": 5035,
      "ived": 5036,
      "Ġmanage": 5037,
      "ĠRosie": 5038,
      "Ġbrings": 5039,
      "Ġpinched": 5040,
      "Ġcakes": 5041,
      "Ġvanish": 5042,
      "Ġfashion": 5043,
      "Ġprinter": 5044,
      "Ġdestroyed": 5045,
      "ĠAb": 5046,
      "Ġtreasures": 5047,
      "Ġallow": 5048,
      "ĠClara": 5049,
      "ups": 5050,
      "Ġhadn": 5051,
      "Ġworse": 5052,
      "Ġvel": 5053,
      "Ġhits": 5054,
      "Ġbur": 5055,
      "do": 5056,
      "xu": 5057,
      "Ġvelvet": 5058,
      "Ġappear": 5059,
      "Ġdisagree": 5060,
      "Ġcatching": 5061,
      "Ġscattered": 5062,
      "Ġmemories": 5063,
      "Ġsorts": 5064,
      "Ġhers": 5065,
      "Ġscolded": 5066,
      "Ġpears": 5067,
      "Ġoranges": 5068,
      "Ġsigns": 5069,
      "Ġbones": 5070,
      "Ġrang": 5071,
      "Ġsnapped": 5072,
      "Ġsits": 5073,
      "Ġseats": 5074,
      "ĠUncle": 5075,
      "uxu": 5076,
      "Ġgazed": 5077,
      "Ġraised": 5078,
      "ĠSpark": 5079,
      "ĠWiggly": 5080,
      "ĠPr": 5081,
      "Ġsi": 5082,
      "ĠGod": 5083,
      "Ġzipped": 5084,
      "Ġpies": 5085,
      "Ġprints": 5086,
      "Ġshot": 5087,
      "Ġsliding": 5088,
      "Ġfro": 5089,
      "Ġeasier": 5090,
      "ssible": 5091,
      "Ġskills": 5092,
      "urprise": 5093,
      "Ġclimbs": 5094,
      "Ġtwirled": 5095,
      "Ġblankets": 5096,
      "Ġforgotten": 5097,
      "Ġbaked": 5098,
      "ester": 5099,
      "Ġdifference": 5100,
      "esterday": 5101,
      "Ġluxu": 5102,
      "orted": 5103,
      "Ġgolden": 5104,
      "ccer": 5105,
      "Yum": 5106,
      "ising": 5107,
      "Ġkitty": 5108,
      "Ġcutting": 5109,
      "Ġseason": 5110,
      "Ġnowhere": 5111,
      "Ġcrow": 5112,
      "ĠWally": 5113,
      "Ġsoccer": 5114,
      "Ġdared": 5115,
      "ah": 5116,
      "Ġbites": 5117,
      "Ġlung": 5118,
      "Ġcelebrated": 5119,
      "choo": 5120,
      "chie": 5121,
      "Ġstraight": 5122,
      "Ġunlocked": 5123,
      "sters": 5124,
      "ĠMe": 5125,
      "ĠAn": 5126,
      "Ġsorting": 5127,
      "Ġcollected": 5128,
      "Ġbleed": 5129,
      "ĠMoral": 5130,
      "aped": 5131,
      "ding": 5132,
      "Ġwelcomed": 5133,
      "Ġvisited": 5134,
      "Ġspoons": 5135,
      "ĠOut": 5136,
      "Ġours": 5137,
      "Ġstitch": 5138,
      "ĠMaggie": 5139,
      "Ġjogging": 5140,
      "ĠTuna": 5141,
      "medi": 5142,
      "Ġemer": 5143,
      "mediately": 5144,
      "Ġisn": 5145,
      "Ġtong": 5146,
      "Ġtrave": 5147,
      "Ġwinner": 5148,
      "umble": 5149,
      "Surprise": 5150,
      "Ġsince": 5151,
      "Ġruin": 5152,
      "Ġprett": 5153,
      "Ok": 5154,
      "Ġattached": 5155,
      "ĠKing": 5156,
      "Ġweeping": 5157,
      "Ġmarching": 5158,
      "Ġluxury": 5159,
      "Ġsimple": 5160,
      "Ġshouldn": 5161,
      "Ġguessed": 5162,
      "Ġzero": 5163,
      "Ġcreated": 5164,
      "Ġstuffed": 5165,
      "Ġpets": 5166,
      "ĠSmith": 5167,
      "ction": 5168,
      "Ġwaist": 5169,
      "Ġfamil": 5170,
      "Ġurged": 5171,
      "Ġbowed": 5172,
      "Ġselling": 5173,
      "ĠGr": 5174,
      "Ġfloating": 5175,
      "ĠSuzy": 5176,
      "Ġbye": 5177,
      "Ġvict": 5178,
      "Ġkingdom": 5179,
      "Ġolives": 5180,
      "Ġkicking": 5181,
      "Ġpunished": 5182,
      "sit": 5183,
      "ĠQu": 5184,
      "ĠBo": 5185,
      "Ġtoes": 5186,
      "Ġgrant": 5187,
      "Ġmuscles": 5188,
      "Ġjewels": 5189,
      "Ġbeds": 5190,
      "Ġmelted": 5191,
      "Ġslice": 5192,
      "Goodbye": 5193,
      "Ġgrin": 5194,
      "Ġunderstanding": 5195,
      "rr": 5196,
      "Ġcollection": 5197,
      "Ġtore": 5198,
      "Ġmeasured": 5199,
      "Ġcras": 5200,
      "aker": 5201,
      "ĠBoth": 5202,
      "ĠSlow": 5203,
      "iers": 5204,
      "Ġtrapped": 5205,
      "omeday": 5206,
      "ĠDr": 5207,
      "Ġlined": 5208,
      "'ve": 5209,
      "Ġacted": 5210,
      "fortunately": 5211,
      "Ġencouraged": 5212,
      "va": 5213,
      "Ġreceived": 5214,
      "Ġwaffles": 5215,
      "ĠChe": 5216,
      "Ġwest": 5217,
      "Ġmeow": 5218,
      "ents": 5219,
      "Ġpatterns": 5220,
      "ĠDin": 5221,
      "ĠBoo": 5222,
      "Ġbrus": 5223,
      "Ġmouths": 5224,
      "kins": 5225,
      "Ġbang": 5226,
      "ring": 5227,
      "Meow": 5228,
      "Ġpeaches": 5229,
      "Ġbreeze": 5230,
      "aded": 5231,
      "une": 5232,
      "Ġprinted": 5233,
      "Ġsoldiers": 5234,
      "Ġsomeday": 5235,
      "Ġpotatoes": 5236,
      "Ġpupil": 5237,
      "umes": 5238,
      "Ġresult": 5239,
      "Ġdrinks": 5240,
      "Ġshed": 5241,
      "Ġexperience": 5242,
      "Ġpresents": 5243,
      "Ġfiref": 5244,
      "Ġsurround": 5245,
      "Ġnone": 5246,
      "Ġvoices": 5247,
      "osed": 5248,
      "Ġdrinking": 5249,
      "ishing": 5250,
      "Ġrelaxed": 5251,
      "Ġvictory": 5252,
      "cus": 5253,
      "Ġbreaking": 5254,
      "Ġpaints": 5255,
      "Ġhurried": 5256,
      "Ġtwink": 5257,
      "ission": 5258,
      "Ġtongue": 5259,
      "eep": 5260,
      "Ġcostumes": 5261,
      "Ġflat": 5262,
      "Ġmentioned": 5263,
      "Ġbegged": 5264,
      "Ġteasing": 5265,
      "Ġwhistling": 5266,
      "Ġfetch": 5267,
      "Ġpermission": 5268,
      "Ġsip": 5269,
      "Ġdisagreed": 5270,
      "ĠThese": 5271,
      "Ġpearl": 5272,
      "Ġsix": 5273,
      "ĠToto": 5274,
      "Amy": 5275,
      "akes": 5276,
      "Ġstro": 5277,
      "vest": 5278,
      "ĠRocky": 5279,
      "Ġesc": 5280,
      "Ġappro": 5281,
      "Ġskipping": 5282,
      "Ġfishing": 5283,
      "Ġhighest": 5284,
      "Ġpra": 5285,
      "Ġwatches": 5286,
      "Ġsorted": 5287,
      "ĠChicky": 5288,
      "Ġringing": 5289,
      "ship": 5290,
      "Ġtonight": 5291,
      "Ġopin": 5292,
      "Ġlets": 5293,
      "icing": 5294,
      "Next": 5295,
      "Ġperfectly": 5296,
      "Ġshadows": 5297,
      "Ġimmediately": 5298,
      "Ġherbs": 5299,
      "Ġwarmth": 5300,
      "Ġspit": 5301,
      "Ġremained": 5302,
      "ĠIts": 5303,
      "ther": 5304,
      "walk": 5305,
      "ĠPepper": 5306,
      "irring": 5307,
      "Ġsneak": 5308,
      "Ġlips": 5309,
      "Ġkneeled": 5310,
      "ĠMilly": 5311,
      "Ġcontest": 5312,
      "utter": 5313,
      "Ġcartoons": 5314,
      "Mr": 5315,
      "Ġsidewalk": 5316,
      "Ġcolours": 5317,
      "Ġstamps": 5318,
      "ĠFollow": 5319,
      "Ġago": 5320,
      "Ġeast": 5321,
      "Ġheaded": 5322,
      "oved": 5323,
      "\",": 5324,
      "Ġstrang": 5325,
      "Ha": 5326,
      "Ġfed": 5327,
      "Ġladyb": 5328,
      "Ġsupposed": 5329,
      "ĠSky": 5330,
      "Ġlick": 5331,
      "Ġroots": 5332,
      "Ġcrunch": 5333,
      "ĠHop": 5334,
      "ĠDino": 5335,
      "Ġmixing": 5336,
      "Ġworks": 5337,
      "Ġdecorations": 5338,
      "Ġknown": 5339,
      "Ġmelting": 5340,
      "Ġemergen": 5341,
      "Ġrested": 5342,
      "Ġlines": 5343,
      "Ġlily": 5344,
      "Ġinstr": 5345,
      "Ġlaid": 5346,
      "Ġcones": 5347,
      "Ġsucceeded": 5348,
      "Ġwiggle": 5349,
      "ety": 5350,
      "sing": 5351,
      "Ġshock": 5352,
      "Ġsetting": 5353,
      "ĠFrank": 5354,
      "Ġstudied": 5355,
      "Ġstrangers": 5356,
      "ĠZigzag": 5357,
      "Ġtwigs": 5358,
      "Really": 5359,
      "Ġbrid": 5360,
      "Ġtheirs": 5361,
      "Ġgirls": 5362,
      "boo": 5363,
      "!\",": 5364,
      "Ġscreams": 5365,
      "Ġlands": 5366,
      "Ġordered": 5367,
      "ĠHowever": 5368,
      "Ġstirring": 5369,
      "Ġmoments": 5370,
      "Ġfields": 5371,
      "Ġalright": 5372,
      "Ġstealing": 5373,
      "ded": 5374,
      "Ġrul": 5375,
      "Ġbravely": 5376,
      "avid": 5377,
      "Ġmister": 5378,
      "!'": 5379,
      "Ġinvest": 5380,
      "Ġscratched": 5381,
      "Ġplaytime": 5382,
      "Ġripped": 5383,
      "Ġinvestig": 5384,
      "Ġtucked": 5385,
      "Ġresting": 5386,
      "Ġburning": 5387,
      "ishes": 5388,
      "ĠMo": 5389,
      "Ġbridges": 5390,
      "Ġtext": 5391,
      "ĠAm": 5392,
      "Ġofficer": 5393,
      "please": 5394,
      "ĠSteve": 5395,
      "abies": 5396,
      "ĠDavid": 5397,
      "Ġsettled": 5398,
      "Ġachie": 5399,
      "Ġmatched": 5400,
      "ĠSomeone": 5401,
      "Ġtexture": 5402,
      "Ġturning": 5403,
      "Ġwaits": 5404,
      "ored": 5405,
      "Ġtrembling": 5406,
      "isten": 5407,
      "Ġnails": 5408,
      "Ġmuffins": 5409,
      "ĠUnfortunately": 5410,
      "ids": 5411,
      "Ġescaped": 5412,
      "Ġpiles": 5413,
      "Ġinvestigate": 5414,
      "Ġbroom": 5415,
      "osity": 5416,
      "Ġladybug": 5417,
      "Ġsore": 5418,
      "ĠHappy": 5419,
      "Ġadmir": 5420,
      "Ġappreciate": 5421,
      "ĠLizzy": 5422,
      "Ġthreat": 5423,
      "Ġbabies": 5424,
      "Ġsilence": 5425,
      "Ġsisters": 5426,
      "Ġarea": 5427,
      "Ġemergency": 5428,
      "ides": 5429,
      "Ġdads": 5430,
      "ĠSlowly": 5431,
      "ĠFrog": 5432,
      "Ġanswers": 5433,
      "Ġpupp": 5434,
      "Little": 5435,
      "Ġkeys": 5436,
      "ĠHope": 5437,
      "Ġchewing": 5438,
      "Ġslapped": 5439,
      "Ġwiz": 5440,
      "Ġimportance": 5441,
      "Ġserved": 5442,
      "Ġsafety": 5443,
      "ĠBug": 5444,
      "izing": 5445,
      "ĠRabbit": 5446,
      "Would": 5447,
      "ĠKatie": 5448,
      "Ġsparkle": 5449,
      "Ġtouching": 5450,
      "Ġsoared": 5451,
      "igail": 5452,
      "Ġsings": 5453,
      "Ġhen": 5454,
      "allen": 5455,
      "bers": 5456,
      "antly": 5457,
      "Ġkeeps": 5458,
      "Ġamazement": 5459,
      "Ġchallen": 5460,
      "ĠEl": 5461,
      "Ġhesit": 5462,
      "Ġtwin": 5463,
      "Ġrevealed": 5464,
      "anna": 5465,
      "achel": 5466,
      "Ġdire": 5467,
      "Ġitem": 5468,
      "Ġsoaked": 5469,
      "zing": 5470,
      "Ġwrit": 5471,
      "ĠAbigail": 5472,
      "Ġfoods": 5473,
      "Ġdinosaurs": 5474,
      "Ġrides": 5475,
      "ĠRachel": 5476,
      "Ġrecorded": 5477,
      "Ġtickle": 5478,
      "Ġinch": 5479,
      "Ġwizard": 5480,
      "Ġvet": 5481,
      "Ġtrips": 5482,
      "Ġglowed": 5483,
      "ĠSomething": 5484,
      "ĠMat": 5485,
      "ĠNot": 5486,
      "Mmm": 5487,
      "Ġhi": 5488,
      "Ġbeamed": 5489,
      "Ġquack": 5490,
      "Ġcurled": 5491,
      "Ġhated": 5492,
      "Ġwink": 5493,
      "Ġshopping": 5494,
      "Ġeats": 5495,
      "ĠBeep": 5496,
      "Ġpraised": 5497,
      "Ġwooden": 5498,
      "Ġbringing": 5499,
      "Ġmittens": 5500,
      "Ġstudying": 5501,
      "Ġguy": 5502,
      "Happy": 5503,
      "int": 5504,
      "Ġbrushes": 5505,
      "ĠAunt": 5506,
      "Ġspaceship": 5507,
      "Ġgust": 5508,
      "Ġcrawling": 5509,
      "ĠJoy": 5510,
      "Ġruler": 5511,
      "Ġflav": 5512,
      "Ġdownstairs": 5513,
      "ĠZoe": 5514,
      "Ġshooting": 5515,
      "Ġnapping": 5516,
      "Ġtastes": 5517,
      "ĠStar": 5518,
      "Ġmarks": 5519,
      "Ġsprinkles": 5520,
      "Ġcuddled": 5521,
      "Ġdot": 5522,
      "hello": 5523,
      "Ġfut": 5524,
      "ales": 5525,
      "aved": 5526,
      "Ġfuture": 5527,
      "Ġmonsters": 5528,
      "Ġcollecting": 5529,
      "Ġmeasuring": 5530,
      "'.": 5531,
      "Ġfamilies": 5532,
      "Kitty": 5533,
      "Ġthrill": 5534,
      "Ġoat": 5535,
      "Ġapproached": 5536,
      "act": 5537,
      "Ġcrunchy": 5538,
      "Ġremem": 5539,
      "Ġbleeding": 5540,
      "Ġremembers": 5541,
      "ĠHo": 5542,
      "Ġnicer": 5543,
      "Ġbeat": 5544,
      "ĠJess": 5545,
      "ibb": 5546,
      "Ġsneaky": 5547,
      "Ġdisturbed": 5548,
      "Ġleader": 5549,
      "ĠBeh": 5550,
      "Ġscaring": 5551,
      "ĠRay": 5552,
      "Ġpeel": 5553,
      "Ġfiremen": 5554,
      "ĠDid": 5555,
      "Ġneighborhood": 5556,
      "Ġgrey": 5557,
      "Boo": 5558,
      "Ġmotion": 5559,
      "Ġnoon": 5560,
      "Ġpossible": 5561,
      "Ġapologized": 5562,
      "ĠBehind": 5563,
      "Or": 5564,
      "Ġweighed": 5565,
      "ues": 5566,
      "ĠSad": 5567,
      "Ġtickets": 5568,
      "Ġnaps": 5569,
      "When": 5570,
      "Ġloose": 5571,
      "Jo": 5572,
      "Ġpride": 5573,
      "Ġyouth": 5574,
      "ĠSqu": 5575,
      "Ġswims": 5576,
      "ped": 5577,
      "Ġstrings": 5578,
      "Ġrecognized": 5579,
      "Ġsiren": 5580,
      "Ġpoking": 5581,
      "fied": 5582,
      "cious": 5583,
      "ha": 5584,
      "She": 5585,
      "elvet": 5586,
      "Ġtricked": 5587,
      "Ġwonders": 5588,
      "Ġgained": 5589,
      "Ġwanting": 5590,
      "Ġcrashed": 5591,
      "Ġobe": 5592,
      "Ġseesaw": 5593,
      "Ġworker": 5594,
      "unnies": 5595,
      "ĠJam": 5596,
      "oming": 5597,
      "Ġdraws": 5598,
      "Ġscooped": 5599,
      ".'": 5600,
      "Ġzooming": 5601,
      "Ġopinion": 5602,
      "Ġyelling": 5603,
      "ĠVelvet": 5604,
      "Ġprepared": 5605,
      "ĠPippa": 5606,
      "Ġgrinned": 5607,
      "Ġawe": 5608,
      "ĠFriend": 5609,
      "Ġdoggy": 5610,
      "Ġpoems": 5611,
      "Ġacting": 5612,
      "ĠAlways": 5613,
      "Ġhappiest": 5614,
      "Ġchef": 5615,
      "Ġsneaked": 5616,
      "Ġrespons": 5617,
      "Ġeff": 5618,
      "ĠCar": 5619,
      "Ġbunnies": 5620,
      "Ġowned": 5621,
      "ĠJe": 5622,
      "Ġanytime": 5623,
      "Ġstruck": 5624,
      "Ġpedals": 5625,
      "ena": 5626,
      "Ġknelt": 5627,
      "oys": 5628,
      "ĠNan": 5629,
      "Ġsecrets": 5630,
      "Ġpause": 5631,
      "Ġdecorated": 5632,
      "Ġhorns": 5633,
      "Ġagreement": 5634,
      "ĠRobby": 5635,
      "ided": 5636,
      "Ġfrost": 5637,
      "ĠDuring": 5638,
      "Ġtallest": 5639,
      "Ġobey": 5640,
      "ĠJu": 5641,
      "ĠChr": 5642,
      "ogo": 5643,
      "ĠStop": 5644,
      "ĠBy": 5645,
      "Remember": 5646,
      "Ġdecides": 5647,
      "Have": 5648,
      "ĠJan": 5649,
      "Ġbehaved": 5650,
      "Ġtugged": 5651,
      "Ġgran": 5652,
      "Ġsides": 5653,
      "Ġwoof": 5654,
      "Ġslim": 5655,
      "zen": 5656,
      "Ġgoodnight": 5657,
      "Ġkeeper": 5658,
      "Ġsparkling": 5659,
      "Ġchirped": 5660,
      "Ġprecious": 5661,
      "mother": 5662,
      "ien": 5663,
      "lier": 5664,
      "Ġrepeated": 5665,
      "Ġclaps": 5666,
      "indy": 5667,
      "Ġcontain": 5668,
      "affes": 5669,
      "Ġsnowballs": 5670,
      "rs": 5671,
      "Ġourselves": 5672,
      "ĠStitch": 5673,
      "ĠBree": 5674,
      "allow": 5675,
      "Ġgiraffes": 5676,
      "Ġbalancing": 5677,
      "Ġkindly": 5678,
      "ĠLike": 5679,
      "Ġspending": 5680,
      "omas": 5681,
      "Ġwrites": 5682,
      "ays": 5683,
      "ppers": 5684,
      "Ġprop": 5685,
      "ĠBouncy": 5686,
      "Ġhissed": 5687,
      "ĠAd": 5688,
      "Ġfrozen": 5689,
      "Ġfrosting": 5690,
      "Ġeffort": 5691,
      "ĠSpl": 5692,
      "Ġbuzzing": 5693,
      "Ġstruggled": 5694,
      "ud": 5695,
      "Sally": 5696,
      "Ġadmiring": 5697,
      "Ġrele": 5698,
      "Ġsweeties": 5699,
      "Ġslimy": 5700,
      "Ġbrushed": 5701,
      "ĠGogo": 5702,
      "ĠBirdie": 5703,
      "Ġbloomed": 5704,
      "Ġpolished": 5705,
      "ĠDare": 5706,
      "ĠThomas": 5707,
      "Al": 5708,
      "Ġcomfy": 5709,
      "Ġboo": 5710,
      "Ġstaying": 5711,
      "ĠGreen": 5712,
      "Ġrubbing": 5713,
      "Ġrocking": 5714,
      "Ġpockets": 5715,
      "Ġthrilled": 5716,
      "Ġbeside": 5717,
      "ĠAva": 5718,
      "Ġcomple": 5719,
      "Ġeight": 5720,
      "isdom": 5721,
      "urry": 5722,
      "Ġmachines": 5723,
      "iggy": 5724,
      "Ġearlier": 5725,
      "Ġyesterday": 5726,
      "Ġseems": 5727,
      "Ġrust": 5728,
      "ĠJulie": 5729,
      "ĠOlly": 5730,
      "ĠKeep": 5731,
      "Ġtraveled": 5732,
      "Ġfolding": 5733,
      "Ġboom": 5734,
      "Ġcracked": 5735,
      "ities": 5736,
      "Ġhugging": 5737,
      "Ah": 5738,
      "Ġradishes": 5739,
      "Ġloving": 5740,
      "Ġopening": 5741,
      "Ġcircus": 5742,
      "Ġcuriosity": 5743,
      "Ġsurrounded": 5744,
      "Ġspraying": 5745,
      "Ġdemanded": 5746,
      "Ġpaintings": 5747,
      "Ġremoved": 5748,
      "Ġgaze": 5749,
      "oh": 5750,
      "Ġhonk": 5751,
      "Ġpebbles": 5752,
      "Ġhardly": 5753,
      "Ġzookeeper": 5754,
      "Ġcatches": 5755,
      "edding": 5756,
      "Ġsting": 5757,
      "Ġstripes": 5758,
      "Ġpowers": 5759,
      "Ġloaded": 5760,
      "Daddy": 5761,
      "Ġpots": 5762,
      "Ġsplashes": 5763,
      "Ġpetted": 5764,
      "Ġmatching": 5765,
      "Ġtoss": 5766,
      "Ġbelly": 5767,
      "Ġstare": 5768,
      "ĠBeth": 5769,
      "Ġwhatever": 5770,
      "Ġapologize": 5771,
      "Ġrocked": 5772,
      "Ġcomforted": 5773,
      "ĠEveryday": 5774,
      "Ġdecision": 5775,
      "Ġribbons": 5776,
      "ern": 5777,
      "Yummy": 5778,
      "Ġstruggling": 5779,
      "Ch": 5780,
      "Ġexpected": 5781,
      "Ġsteep": 5782,
      "ĠJamie": 5783,
      "Ġprotected": 5784,
      "Ġneighbors": 5785,
      "Ġsmiley": 5786,
      "Ġchases": 5787,
      "ĠLou": 5788,
      "Ġgranted": 5789,
      "Ġcrumb": 5790,
      "ĠWater": 5791,
      "Ġpurred": 5792,
      "Ġdiving": 5793,
      "ĠAbby": 5794,
      "Ġsadness": 5795,
      "Ġorganizing": 5796,
      "Ġeagle": 5797,
      "Ġheroes": 5798,
      "Ġdipped": 5799,
      "ĠSpring": 5800,
      "Ġsunlight": 5801,
      "Ġlied": 5802,
      "Ġpastels": 5803,
      "ĠNina": 5804,
      "ĠBecause": 5805,
      "Ġroads": 5806,
      "Ġsafer": 5807,
      "Ġscru": 5808,
      "Ġargued": 5809,
      "Somet": 5810,
      "Ġgoals": 5811,
      "Ġdiscovery": 5812,
      "ĠSure": 5813,
      "Ġpeered": 5814,
      "Ġvillag": 5815,
      "Ġdeser": 5816,
      "Gra": 5817,
      "ĠSplash": 5818,
      "loe": 5819,
      "use": 5820,
      "Ġtim": 5821,
      "Ġdragons": 5822,
      "ĠMir": 5823,
      "ĠLu": 5824,
      "Ġbuildings": 5825,
      "Ġbuckets": 5826,
      "Ġparties": 5827,
      "Ġbeard": 5828,
      "ĠWisdom": 5829,
      "Ġwedding": 5830,
      "Ġflutter": 5831,
      "Ġplanets": 5832,
      "Ġann": 5833,
      "Ġpolishing": 5834,
      "Ġfasc": 5835,
      "ĠFor": 5836,
      "Ġreleased": 5837,
      "ĠWatch": 5838,
      "Ġcrabs": 5839,
      "Ġtails": 5840,
      "Ġsausages": 5841,
      "ĠCla": 5842,
      "Ġargu": 5843,
      "Bird": 5844,
      "Ġcontro": 5845,
      "Ġbottles": 5846,
      "Ġwiggled": 5847,
      "Ġteased": 5848,
      "ĠZero": 5849,
      "Thanks": 5850,
      "Ġarguing": 5851,
      "Ġsled": 5852,
      "Ġdragged": 5853,
      "Ġpadd": 5854,
      "ĠChloe": 5855,
      "Ġroaring": 5856,
      "ĠJosh": 5857,
      "Ġclearing": 5858,
      "Ġshirts": 5859,
      "Ġmovies": 5860,
      "Ġgathering": 5861,
      "Ġairpl": 5862,
      "Ġwid": 5863,
      "joyed": 5864,
      "ĠRemember": 5865,
      "Ġteaches": 5866,
      "Ġspiders": 5867,
      "Ġlimes": 5868,
      "Ġoverjoyed": 5869,
      "Ġactually": 5870,
      "ĠHippy": 5871,
      "Ġsighs": 5872,
      "Ġcontinue": 5873,
      "anny": 5874,
      "Ġcuddle": 5875,
      "Ġsoaring": 5876,
      "Ġsmallest": 5877,
      "ĠOl": 5878,
      "ĠKay": 5879,
      "...": 5880,
      "Ġdrives": 5881,
      "Ġrip": 5882,
      "Ġsparkles": 5883,
      "Ġsitu": 5884,
      "Ġcubes": 5885,
      "Ġrefres": 5886,
      "Ġtalent": 5887,
      "Ġchallenge": 5888,
      "Ġgrandmother": 5889,
      "umm": 5890,
      "ĠMoo": 5891,
      "Ġpouring": 5892,
      "Ġpretends": 5893,
      "Ġfascin": 5894,
      "ĠHanna": 5895,
      "Ġcuts": 5896,
      "Ġbank": 5897,
      "Ġpeppers": 5898,
      "Ġquarreling": 5899,
      "Ġmane": 5900,
      "ĠBeing": 5901,
      "Ġshivered": 5902,
      "ten": 5903,
      "ĠX": 5904,
      "Ġdusty": 5905,
      "ib": 5906,
      "ley": 5907,
      "Ġwondering": 5908,
      "Ġvillagers": 5909,
      "Ġstretching": 5910,
      "njoy": 5911,
      "Ġweeks": 5912,
      "Ġwherever": 5913,
      "Ġdarker": 5914,
      "jam": 5915,
      "sses": 5916,
      "Ġrings": 5917,
      "Ġonwards": 5918,
      "Ġunited": 5919,
      "ĠBop": 5920,
      "Achoo": 5921,
      "John": 5922,
      "Ġbead": 5923,
      "Ġprettiest": 5924,
      "Ġcaut": 5925,
      "lowers": 5926,
      "Ġrealize": 5927,
      "Ġcompany": 5928,
      "Ġpenguins": 5929,
      "ĠCatty": 5930,
      "Ġbedtime": 5931,
      "Ġcompleted": 5932,
      "ĠLeave": 5933,
      "Ġknights": 5934,
      "Ġcontrol": 5935,
      "âĢĿ.": 5936,
      "Ġflags": 5937,
      "Ġplayroom": 5938,
      "Ġactions": 5939,
      "ĠPrin": 5940,
      "Ġlearns": 5941,
      "Ġgotten": 5942,
      "Ġpatience": 5943,
      "inda": 5944,
      "Ġshrug": 5945,
      "ĠFish": 5946,
      "Ġkites": 5947,
      "ĠTwo": 5948,
      "ĠLena": 5949,
      "Ġresponsible": 5950,
      "Ġfears": 5951,
      "Ġdestination": 5952,
      "Ġwires": 5953,
      "Ġreply": 5954,
      "Ġdam": 5955,
      "Ġwrist": 5956,
      "ĠAnne": 5957,
      "ĠChew": 5958,
      "aws": 5959,
      "ĠEarth": 5960,
      "Ġpacking": 5961,
      "Ġfault": 5962,
      "Ġmountains": 5963,
      "Ġapplauded": 5964,
      "Ġma": 5965,
      "Ġscrubbed": 5966,
      "Ġcrept": 5967,
      "Uh": 5968,
      "Ġsatis": 5969,
      "Fl": 5970,
      "ĠCra": 5971,
      "Mama": 5972,
      "ĠAdam": 5973,
      "Ġthird": 5974,
      "Ġphot": 5975,
      "Ġpencils": 5976,
      "Ġwins": 5977,
      "Ġsticking": 5978,
      "Ġbaker": 5979,
      "Ġvisiting": 5980,
      "Ġwound": 5981,
      "Ġpeas": 5982,
      "Ġuses": 5983,
      "Ġreminder": 5984,
      "ashed": 5985,
      "ĠPut": 5986,
      "Ġjoking": 5987,
      "Ġawake": 5988,
      "Ġinstruct": 5989,
      "Ġstaring": 5990,
      "Ġhealed": 5991,
      "ĠBlink": 5992,
      "Ġhitting": 5993,
      "ĠFriends": 5994,
      "Ġscreaming": 5995,
      "Ġbegin": 5996,
      "ĠLuck": 5997,
      "ĠBrownie": 5998,
      "icorn": 5999,
      "ĠMad": 6000,
      "Ġhelmets": 6001,
      "enty": 6002,
      "Ġunicorn": 6003,
      "ler": 6004,
      "seek": 6005,
      "Ġtowels": 6006,
      "ĠLuckily": 6007,
      "Mum": 6008,
      "ĠHannah": 6009,
      "Ġchips": 6010,
      "ica": 6011,
      "Ġcreation": 6012,
      "Ġwasted": 6013,
      "Sometimes": 6014,
      "Just": 6015,
      "bie": 6016,
      "Ġmasks": 6017,
      "Ġforgi": 6018,
      "Ġitems": 6019,
      "ĠSun": 6020,
      "Ġfirefight": 6021,
      "Ġoutdo": 6022,
      "Ġlollipops": 6023,
      "Ġheav": 6024,
      "ĠMira": 6025,
      "Watch": 6026,
      "Ġguns": 6027,
      "Ġdied": 6028,
      "Ġseas": 6029,
      "Ġglitter": 6030,
      "ĠPrincess": 6031,
      "ĠMouse": 6032,
      "ĠMon": 6033,
      "uddles": 6034,
      "Ġarrive": 6035,
      "ĠClaire": 6036,
      "Silly": 6037,
      "Ġweren": 6038,
      "Ġstole": 6039,
      "Ġscales": 6040,
      "die": 6041,
      "Ġperched": 6042,
      "Ġaccom": 6043,
      "ĠLove": 6044,
      "Ġlogs": 6045,
      "Ġachieve": 6046,
      "Ġpracticing": 6047,
      "ining": 6048,
      "Ġwhose": 6049,
      "Ġpumpkins": 6050,
      "Ġinstructions": 6051,
      "Ġswoop": 6052,
      "Ġbatteries": 6053,
      "Ġcandies": 6054,
      "Ġagrees": 6055,
      "Ġproject": 6056,
      "Ġsnakes": 6057,
      "Ġchirping": 6058,
      "ĠJilly": 6059,
      "Ġshelves": 6060,
      "Ġprotecting": 6061,
      "ĠHoot": 6062,
      "Ġexact": 6063,
      "Ġparked": 6064,
      "Stay": 6065,
      "Ġpatiently": 6066,
      "Ġactiv": 6067,
      "ĠAlly": 6068,
      "Ġshoulders": 6069,
      "Ġvideos": 6070,
      "Ġblows": 6071,
      "Ġpromises": 6072,
      "go": 6073,
      "Ġdent": 6074,
      "ĠMatt": 6075,
      "ners": 6076,
      "uest": 6077,
      "Ġexamined": 6078,
      "Ġairplane": 6079,
      "jamas": 6080,
      "ĠFoxy": 6081,
      "Ġroses": 6082,
      "hee": 6083,
      "Ġaccompl": 6084,
      "Ġtasks": 6085,
      "ĠSquirrel": 6086,
      "ĠSusan": 6087,
      "Ġbeads": 6088,
      "Ġbowls": 6089,
      "Ġcrumbs": 6090,
      "zes": 6091,
      "ĠDot": 6092,
      "ĠWhist": 6093,
      "Ġlistens": 6094,
      "Fluffy": 6095,
      "Ġbunch": 6096,
      "Ġdolphins": 6097,
      "Ġcough": 6098,
      "Ġguest": 6099,
      "Today": 6100,
      "Ex": 6101,
      "ĠCuddles": 6102,
      "cakes": 6103,
      "Ġrequested": 6104,
      "Ġremote": 6105,
      "Ġimproved": 6106,
      "ĠBye": 6107,
      "anta": 6108,
      "Ġbrand": 6109,
      "Ġreaching": 6110,
      "Ġalien": 6111,
      "irm": 6112,
      "Ġcopy": 6113,
      "ĠQuick": 6114,
      "Ġcheering": 6115,
      "Mummy": 6116,
      "ĠJeff": 6117,
      "Ġphotos": 6118,
      "Ġcans": 6119,
      "Ġbene": 6120,
      "Ġtimer": 6121,
      "Ġreplaced": 6122,
      "Ġworkers": 6123,
      "Ġstern": 6124,
      "ĠEnjoy": 6125,
      "Ġadult": 6126,
      "Bad": 6127,
      "Ġneither": 6128,
      "aster": 6129,
      "Ġpassing": 6130,
      "Ġmisses": 6131,
      "Ġpuppet": 6132,
      "Ġcurtains": 6133,
      "Ġconfl": 6134,
      "Ġrainbows": 6135,
      "Ġtwirl": 6136,
      "Ġrubs": 6137,
      "Ġrolls": 6138,
      "uctantly": 6139,
      "ĠLuke": 6140,
      "ĠJessie": 6141,
      "Ġpatted": 6142,
      "Ġconflict": 6143,
      "ilo": 6144,
      "Ġpajamas": 6145,
      "Ġoutdoors": 6146,
      "esome": 6147,
      "dies": 6148,
      "Ġcomplaining": 6149,
      "ĠDizzy": 6150,
      "Ġcloses": 6151,
      "Ġbeneath": 6152,
      "Ġlap": 6153,
      "Ġdrums": 6154,
      "Run": 6155,
      "Ġtune": 6156,
      "ĠSanta": 6157,
      "Ro": 6158,
      "Ġfilling": 6159,
      "ĠSorry": 6160,
      "angled": 6161,
      "Ġrefuse": 6162,
      "Ġsweat": 6163,
      "Ġfaced": 6164,
      "Ġseven": 6165,
      "Ġbalanced": 6166,
      "Ġ1": 6167,
      "Ġrescued": 6168,
      "bl": 6169,
      "Ġquacked": 6170,
      "neath": 6171,
      "ĠDays": 6172,
      "ĠYes": 6173,
      "ĠOur": 6174,
      "Ġawesome": 6175,
      "Ġmission": 6176,
      "Ġguys": 6177,
      "Ġcautious": 6178,
      "Ġcause": 6179,
      "Ġvent": 6180,
      "Ġobserved": 6181,
      "Cat": 6182,
      "Ġintroduc": 6183,
      "Ġpastries": 6184,
      "nie": 6185,
      "Ġdoctors": 6186,
      "Ġexactly": 6187,
      "Ġrule": 6188,
      "ĠHenny": 6189,
      "Ġbecoming": 6190,
      "Ġmes": 6191,
      "Ġpoliceman": 6192,
      "lay": 6193,
      "Ġrockets": 6194,
      "uly": 6195,
      "you": 6196,
      "Ġfairies": 6197,
      "Ġpout": 6198,
      "ĠLinda": 6199,
      "ĠJac": 6200,
      "Ġinsist": 6201,
      "Ġblooming": 6202,
      "Ġtractor": 6203,
      "Ġfarther": 6204,
      "Tommy": 6205,
      "avi": 6206,
      "Oops": 6207,
      "Ġdesert": 6208,
      "Ġremembering": 6209,
      "Ġincluded": 6210,
      "Ġcurly": 6211,
      "Ġteamwork": 6212,
      "zie": 6213,
      "Great": 6214,
      "Ġfascinated": 6215,
      "Ġslam": 6216,
      "Ġwobbled": 6217,
      "Ġtruly": 6218,
      "Ġhelpers": 6219,
      "Fine": 6220,
      "Ġsights": 6221,
      "Ġpaddle": 6222,
      "Ġfirm": 6223,
      "Ġstumble": 6224,
      "Ġcaused": 6225,
      "Ġprayer": 6226,
      "ĠJenna": 6227,
      "Then": 6228,
      "Ġspong": 6229,
      "Ġrecording": 6230,
      "kelly": 6231,
      "eah": 6232,
      "Ġstarfish": 6233,
      "Ġtraded": 6234,
      "ĠSc": 6235,
      "Ġsupplies": 6236,
      "Ġthro": 6237,
      "Ġpointy": 6238,
      "Ġinviting": 6239,
      "Ġsituation": 6240,
      "gers": 6241,
      "Ġeveryday": 6242,
      "Ġneighbourhood": 6243,
      "Ġornaments": 6244,
      "ĠAnt": 6245,
      "ĠWhistle": 6246,
      "inkle": 6247,
      "Ġvalued": 6248,
      "Ġadding": 6249,
      "ais": 6250,
      "Ġreluctantly": 6251,
      "ĠRover": 6252,
      "Ġdots": 6253,
      "Ġstays": 6254,
      "Ġbare": 6255,
      "Ġtables": 6256,
      "Ġprettier": 6257,
      "ĠMix": 6258,
      "ĠSkelly": 6259,
      "ĠJon": 6260,
      "Ġsnowmen": 6261,
      "ĠJacob": 6262,
      "Ġsteady": 6263,
      "Ġminerals": 6264,
      "ĠGina": 6265,
      "araway": 6266,
      "ĠMilo": 6267,
      "Ġthorn": 6268,
      "ĠGet": 6269,
      "Ġast": 6270,
      "ĠWelcome": 6271,
      "Ġfaraway": 6272,
      "Ġglasses": 6273,
      "ĠĠĊ": 6274,
      "ĠDuck": 6275,
      "ĠPo": 6276,
      "Ġswooped": 6277,
      "ĠBetsy": 6278,
      "Ġunf": 6279,
      "Ġforks": 6280,
      "Ġusually": 6281,
      "Ġusual": 6282,
      "Ġdar": 6283,
      "Ġwinked": 6284,
      "Ġsneezing": 6285,
      "Ġsolut": 6286,
      "ĠDara": 6287,
      "Ġloading": 6288,
      "Ġsponge": 6289,
      "Ġinsects": 6290,
      "ĠDee": 6291,
      "ody": 6292,
      "Ġpans": 6293,
      "ĠStay": 6294,
      "Ġsobbed": 6295,
      "Ġgrowling": 6296,
      "sm": 6297,
      "Ġthroat": 6298,
      "Ġnoses": 6299,
      "ĠWant": 6300,
      "ĠKids": 6301,
      "Ġscarves": 6302,
      "Ġconfident": 6303,
      "Ġyourselves": 6304,
      "arter": 6305,
      "agull": 6306,
      "ĠSuzie": 6307,
      "Ġhomework": 6308,
      "Ġsuperheroes": 6309,
      "ĠAsh": 6310,
      "...\"": 6311,
      "Ġsmarter": 6312,
      "Ġwindy": 6313,
      "Ġlibrarian": 6314,
      "Timmy": 6315,
      "Ġgems": 6316,
      "ĠFu": 6317,
      "ora": 6318,
      "Ġunderneath": 6319,
      "Ġkicks": 6320,
      "Ġknowled": 6321,
      "Ġitchy": 6322,
      "Ġjackets": 6323,
      "Ġknowledge": 6324,
      "ĠZiggy": 6325,
      "Ġsurface": 6326,
      "Ġuntie": 6327,
      "Ġcomm": 6328,
      "ĠQuack": 6329,
      "Ġprincesses": 6330,
      "Time": 6331,
      "ido": 6332,
      "Yeah": 6333,
      "coon": 6334,
      "ĠPaws": 6335,
      "Ġsquares": 6336,
      "Ġgiggling": 6337,
      "Ġwarnings": 6338,
      "iar": 6339,
      "Those": 6340,
      "Ġreads": 6341,
      "vin": 6342,
      "Ġchoo": 6343,
      "Ġyounger": 6344,
      "ĠDodo": 6345,
      "Ġclowns": 6346,
      "son": 6347,
      "Ġropes": 6348,
      "ĠWink": 6349,
      "Our": 6350,
      "ĠSadly": 6351,
      "Hold": 6352,
      "Ġbiting": 6353,
      "Le": 6354,
      "Ġcrowd": 6355,
      "pite": 6356,
      "Ġseagull": 6357,
      "Ġpaddled": 6358,
      "Ġwears": 6359,
      "Ġdelivered": 6360,
      "Ġonions": 6361,
      "Ġbuzzed": 6362,
      "Ġcomplained": 6363,
      "eed": 6364,
      "Ġbumpy": 6365,
      "Ġstem": 6366,
      "Ew": 6367,
      "Ġpiggy": 6368,
      "ĠSkip": 6369,
      "ĠJones": 6370,
      "Ġdirection": 6371,
      "ouch": 6372,
      "Ġdived": 6373,
      "Ġstartled": 6374,
      "Ġtangled": 6375,
      "Ġleaning": 6376,
      "bbie": 6377,
      "pr": 6378,
      "Roar": 6379,
      "ĠFido": 6380,
      "Ġbadge": 6381,
      "ĠYesterday": 6382,
      "ĠNana": 6383,
      "ĠJessica": 6384,
      "Fo": 6385,
      "Ġdeal": 6386,
      "Ġunp": 6387,
      "though": 6388,
      "ĠBuggy": 6389,
      "Ġvowed": 6390,
      "Ġnapkins": 6391,
      "anes": 6392,
      "Ġrisk": 6393,
      "Ġtickled": 6394,
      "Ġcovers": 6395,
      "Ġpec": 6396,
      "Shh": 6397,
      "ĠCara": 6398,
      "Ġyells": 6399,
      "Ġsatisfied": 6400,
      "ĠNear": 6401,
      "Ġknocks": 6402,
      "Ġrefreshed": 6403,
      "tuce": 6404,
      "cuse": 6405,
      "Ġcous": 6406,
      "ĠCathy": 6407,
      "Ġarrows": 6408,
      "Ġwipes": 6409,
      "Ġspeaking": 6410,
      "Ġlettuce": 6411,
      "Ġguessing": 6412,
      "ĠCindy": 6413,
      "Ġripe": 6414,
      "Ġhides": 6415,
      "Ġchoices": 6416,
      "ĠLion": 6417,
      "Ġsigned": 6418,
      "Ġslower": 6419,
      "Ġseeker": 6420,
      "Ġintroduced": 6421,
      "irl": 6422,
      "ĠKayla": 6423,
      "Ġsinger": 6424,
      "Ġcreating": 6425,
      "ĠTara": 6426,
      "Ġcent": 6427,
      "Ġfroze": 6428,
      "uggles": 6429,
      "Ġjoked": 6430,
      "Ġsqueal": 6431,
      "Ġexplorers": 6432,
      "Ġtoaster": 6433,
      "ĠJulia": 6434,
      "ĠMel": 6435,
      "Ġavo": 6436,
      "anging": 6437,
      "Ġpraying": 6438,
      "Ġwritten": 6439,
      "Ġdiscovering": 6440,
      "Ġprovided": 6441,
      "Ġrefle": 6442,
      "Excuse": 6443,
      "Jack": 6444,
      "Ġmushrooms": 6445,
      "Ġknees": 6446,
      "Ġpaying": 6447,
      "fit": 6448,
      "Ġhider": 6449,
      "ences": 6450,
      "Ġwandering": 6451,
      "ĠRolly": 6452,
      "Ġimages": 6453,
      "Ġstung": 6454,
      "Ġmagnets": 6455,
      "Ġbarely": 6456,
      "Ġbehaving": 6457,
      "Ġtipto": 6458,
      "?\",": 6459,
      "Ġmarked": 6460,
      "ĠSnuggles": 6461,
      "brush": 6462,
      "Dog": 6463,
      "ĠGrumpy": 6464,
      "Ġrestored": 6465,
      "Ġleading": 6466,
      "lled": 6467,
      "Ġchuck": 6468,
      "ĠOliver": 6469,
      "Ġnine": 6470,
      "ados": 6471,
      "Ġgreet": 6472,
      "Ġbravery": 6473,
      "Ġgears": 6474,
      "Ġcompetition": 6475,
      "Ġoutfit": 6476,
      "oline": 6477,
      "Ġwishing": 6478,
      "Ġproperly": 6479,
      "Ġventured": 6480,
      "aa": 6481,
      "tle": 6482,
      "Ġchat": 6483,
      "Ġdances": 6484,
      "Ġmuscle": 6485,
      "Ġpens": 6486,
      "Ġsalty": 6487,
      "amb": 6488,
      "ĠMikey": 6489,
      "Ġranger": 6490,
      "Ġdeserve": 6491,
      "Ġhowever": 6492,
      "rrr": 6493,
      "sequ": 6494,
      "Ġmatters": 6495,
      "Ġdarkness": 6496,
      "Ġburst": 6497,
      "Ġrainy": 6498,
      "Ġcobwebs": 6499,
      "Ġruining": 6500,
      "Ġchefs": 6501,
      "Ġbak": 6502,
      "Ġconsequ": 6503,
      "Ġblocking": 6504,
      "usted": 6505,
      "itely": 6506,
      "Ġscur": 6507,
      "Ġvines": 6508,
      "ĠCopper": 6509,
      "Ġfab": 6510,
      "abel": 6511,
      "Ġfabric": 6512,
      "Ġentire": 6513,
      "Ġbasement": 6514,
      "Ġleast": 6515,
      "Ġperformed": 6516,
      "ĠLaser": 6517,
      "Ġscratches": 6518,
      "Ġheavier": 6519,
      "Cl": 6520,
      "Ġmints": 6521,
      "Ġavocados": 6522,
      "Ġtwirling": 6523,
      "fl": 6524,
      "rink": 6525,
      "ĠJay": 6526,
      "Ġlosing": 6527,
      "Ġscurried": 6528,
      "Ġsunflowers": 6529,
      "Ġrainco": 6530,
      "Ġswords": 6531,
      "Ġclick": 6532,
      "ĠNothing": 6533,
      "Ġjobs": 6534,
      "Ġsilent": 6535,
      "Grandma": 6536,
      "Ġflames": 6537,
      "Ġnecklaces": 6538,
      "Ġrelief": 6539,
      "ĠSnap": 6540,
      "Ġsnat": 6541,
      "Ġrotting": 6542,
      "Ġsewed": 6543,
      "Ġtricky": 6544,
      "Ġlighter": 6545,
      "ĠWithout": 6546,
      "Listen": 6547,
      "Ġbows": 6548,
      "Ġexha": 6549,
      "ĠPup": 6550,
      "Ġsolution": 6551,
      "Ġconsequences": 6552,
      "len": 6553,
      "Follow": 6554,
      "ho": 6555,
      "Ġstain": 6556,
      "Ġtires": 6557,
      "Ġunpacked": 6558,
      "rance": 6559,
      "ĠEx": 6560,
      "ĠLarry": 6561,
      "Ġpartic": 6562,
      "Ġraces": 6563,
      "Ġpins": 6564,
      "Ġbumps": 6565,
      "Ġwraps": 6566,
      "ĠSophia": 6567,
      "Ġwow": 6568,
      "Ġbacked": 6569,
      "Ġdecorating": 6570,
      "aisies": 6571,
      "cher": 6572,
      "Ġdentist": 6573,
      "Ġneedles": 6574,
      "Ġpurr": 6575,
      "Ġcautiously": 6576,
      "Ġlifting": 6577,
      "ĠTree": 6578,
      "izzie": 6579,
      "ĠThose": 6580,
      "Ġaccomplish": 6581,
      "Ġdaisies": 6582,
      "Ġtriangles": 6583,
      "ept": 6584,
      "Ġhesitated": 6585,
      "Ġannoy": 6586,
      "Ġgrowls": 6587,
      "ĠTwinkle": 6588,
      "Ġcrackers": 6589,
      "ĠBark": 6590,
      "Ġstomped": 6591,
      "Ġcott": 6592,
      "Ġgrabbing": 6593,
      "Ġbodies": 6594,
      "Ġfigured": 6595,
      "Ġmater": 6596,
      "Ġbuying": 6597,
      "Ġmaterial": 6598,
      "oke": 6599,
      "ĠPam": 6600,
      "Ġswans": 6601,
      "Ġties": 6602,
      "Ġgri": 6603,
      "vers": 6604,
      "Ġgrows": 6605,
      "ĠBloom": 6606,
      "ĠGoodbye": 6607,
      "Ġsweets": 6608,
      "Ġowners": 6609,
      "Ġcheeks": 6610,
      "Ġflavor": 6611,
      "ĠLizzie": 6612,
      "Ġsuffering": 6613,
      "vroom": 6614,
      "Ġfact": 6615,
      "Ġgroups": 6616,
      "bly": 6617,
      "Ġforehead": 6618,
      "Ġlungs": 6619,
      "Ġrepa": 6620,
      "ĠTrust": 6621,
      "Ġinterested": 6622,
      "Ġbakery": 6623,
      "ĠRain": 6624,
      "Ġfreed": 6625,
      "itches": 6626,
      "ĠBall": 6627,
      "Ġchuckled": 6628,
      "Ġswept": 6629,
      "Ġconn": 6630,
      "?'": 6631,
      "Ġthud": 6632,
      "Ġexhausted": 6633,
      "Ġtapped": 6634,
      "Ġtwinkling": 6635,
      "Ġnect": 6636,
      "Ġnectar": 6637,
      "ĠQ": 6638,
      "elle": 6639,
      "Ġfeast": 6640,
      "ĠChrist": 6641,
      "Ġdarling": 6642,
      "ĠTry": 6643,
      "indr": 6644,
      "Ġworries": 6645,
      "Ġuns": 6646,
      "Ġtunnels": 6647,
      "Ġfuzzy": 6648,
      "Ġreason": 6649,
      "ĠPeanut": 6650,
      "Ġrepaired": 6651,
      "ĠJune": 6652,
      "ĠUp": 6653,
      "Ġactivities": 6654,
      "ĠListen": 6655,
      "Ġpecked": 6656,
      "Ġentrance": 6657,
      "Ġmeals": 6658,
      "Ġraindr": 6659,
      "ĠEls": 6660,
      "Ġcompletely": 6661,
      "Ġparticular": 6662,
      "Ġmailed": 6663,
      "ĠFrost": 6664,
      "ctions": 6665,
      "Ġnests": 6666,
      "Ġwaiter": 6667,
      "Ġcuddly": 6668,
      "Ġsense": 6669,
      "Ġcolored": 6670,
      "Ġleap": 6671,
      "band": 6672,
      "Ġplenty": 6673,
      "step": 6674,
      "Ġpeeking": 6675,
      "no": 6676,
      "Ġslammed": 6677,
      "ĠBirthday": 6678,
      "Ġplayers": 6679,
      "Ġbudge": 6680,
      "Ġmonth": 6681,
      "Ġscra": 6682,
      "Ġforgets": 6683,
      "Ġden": 6684,
      "ĠFrosty": 6685,
      "Ġhandful": 6686,
      "ĠRobert": 6687,
      "Ġmer": 6688,
      "ĠRollie": 6689,
      "Ġgenie": 6690,
      "Ġstool": 6691,
      "iggie": 6692,
      "Ġtalks": 6693,
      "ossible": 6694,
      "Ġfeeding": 6695,
      "Ġpassports": 6696,
      "Ġfilms": 6697,
      "Ġbaths": 6698,
      "Ġimpossible": 6699,
      "ĠStella": 6700,
      "ĠNick": 6701,
      "Ġdetermination": 6702,
      "ĠâĢĺ": 6703,
      "Ġprinting": 6704,
      "boat": 6705,
      "Ġdesigned": 6706,
      "ĠOther": 6707,
      "Ġbuses": 6708,
      "Ġopp": 6709,
      "lephant": 6710,
      "ueen": 6711,
      "Ġbars": 6712,
      "Ġsuitcase": 6713,
      "Ġnibb": 6714,
      "Ġcounts": 6715,
      "Ġstolen": 6716,
      "Ġspreading": 6717,
      "Ġspikes": 6718,
      "Lila": 6719,
      "Ġsteer": 6720,
      "Ġwiping": 6721,
      "Ġlamb": 6722,
      "Ġhonked": 6723,
      "nies": 6724,
      "Ġcowb": 6725,
      "ky": 6726,
      "Ġseparated": 6727,
      "blings": 6728,
      "Ġsiblings": 6729,
      "Ġhops": 6730,
      "Whee": 6731,
      "ĠLau": 6732,
      "Ġchop": 6733,
      "Ġfires": 6734,
      "Ġsewing": 6735,
      "Ġfever": 6736,
      "Ġtwinkle": 6737,
      "Ġty": 6738,
      "Ġcamping": 6739,
      "Ġlower": 6740,
      "Ġchanging": 6741,
      "yes": 6742,
      "retch": 6743,
      "Ġbehavi": 6744,
      "ĠMissy": 6745,
      "Rex": 6746,
      "mas": 6747,
      "Ġliqu": 6748,
      "Ġcelebration": 6749,
      "Ġdollhouse": 6750,
      "Ġsquealed": 6751,
      "Ġbackward": 6752,
      "Ġage": 6753,
      "ĠMaya": 6754,
      "but": 6755,
      "Ġsnatched": 6756,
      "ĠBiggie": 6757,
      "ĠAbbie": 6758,
      "Ġcash": 6759,
      "Bobo": 6760,
      "Ġtwice": 6761,
      "ĠMic": 6762,
      "Ġsway": 6763,
      "lee": 6764,
      "itched": 6765,
      "uzz": 6766,
      "Ġcelebrating": 6767,
      "Ġache": 6768,
      "Ġshrinking": 6769,
      "Ġkings": 6770,
      "weed": 6771,
      "ĠHold": 6772,
      "rious": 6773,
      "Ġshops": 6774,
      "Ġkittens": 6775,
      "ĠRobbie": 6776,
      "cope": 6777,
      "Ġhus": 6778,
      "cky": 6779,
      "Ġtouches": 6780,
      "ĠLia": 6781,
      "airy": 6782,
      "Ġpancakes": 6783,
      "Ġavoid": 6784,
      "Ġspat": 6785,
      "hog": 6786,
      "rig": 6787,
      "ĠWoof": 6788,
      "Ġpaths": 6789,
      "hile": 6790,
      "ives": 6791,
      "Ġrotten": 6792,
      "Ġcalmed": 6793,
      "Ġdropping": 6794,
      "Ġseaweed": 6795,
      "iles": 6796,
      "Ġtwisting": 6797,
      "Ġstroked": 6798,
      "Ġuntied": 6799,
      "llen": 6800,
      "Ġplayhouse": 6801,
      "Ġstudents": 6802,
      "Ġpuppies": 6803,
      "cl": 6804,
      "hi": 6805,
      "ĠIzzy": 6806,
      "ĠRy": 6807,
      "Ġscrews": 6808,
      "Ġastron": 6809,
      "Ġsomebody": 6810,
      "ĠChris": 6811,
      "igning": 6812,
      "Ġliquid": 6813,
      "Ġsquish": 6814,
      "Ġwakes": 6815,
      "ĠLaura": 6816,
      "ĠRobo": 6817,
      "Ġbracelets": 6818,
      "Ġastronaut": 6819,
      "immer": 6820,
      "aren": 6821,
      "Ġthrown": 6822,
      "Ġloops": 6823,
      "Ġwrapping": 6824,
      "Ġplain": 6825,
      "Ġtramp": 6826,
      "Ġplanning": 6827,
      "Ġaimed": 6828,
      "Ġskunk": 6829,
      "Ġpennies": 6830,
      "ĠFuzzy": 6831,
      "Ġshoo": 6832,
      "Ġdancers": 6833,
      "Ġlifts": 6834,
      "Ġsparks": 6835,
      "Ġfirefly": 6836,
      "pen": 6837,
      "ĠChristmas": 6838,
      "Ġposter": 6839,
      "Ġcust": 6840,
      "endy": 6841,
      "Ġrewarded": 6842,
      "Ġobjects": 6843,
      "Ġdirections": 6844,
      "ingo": 6845,
      "using": 6846,
      "Ġreflection": 6847,
      "Ġhusband": 6848,
      "river": 6849,
      "ĠDoctor": 6850,
      "Take": 6851,
      "ĠRich": 6852,
      "ĠQueen": 6853,
      "Ġclues": 6854,
      "uppy": 6855,
      "ĠWoo": 6856,
      "ĠSparky": 6857,
      "Ġleads": 6858,
      "Ġincreased": 6859,
      "Ġblocked": 6860,
      "âĢĶ": 6861,
      "Ġrising": 6862,
      "Ġdod": 6863,
      "Ġcousin": 6864,
      "ĠElephant": 6865,
      "Ġforgetting": 6866,
      "rigued": 6867,
      "Ġcustom": 6868,
      "ĠRudy": 6869,
      "Ġbeginning": 6870,
      "Ġtrampoline": 6871,
      "Ġstorekeeper": 6872,
      "Ġpouted": 6873,
      "artha": 6874,
      "Ġzebras": 6875,
      "Ġaff": 6876,
      "Ġhedgehog": 6877,
      "ĠRyan": 6878,
      "ĠAng": 6879,
      "Ġborrowed": 6880,
      "ĠKaren": 6881,
      "Ġsnowfl": 6882,
      "Ġcountryside": 6883,
      "ude": 6884,
      "Ġmesmer": 6885,
      "Ġvehicles": 6886,
      "ĠOnly": 6887,
      "Ġinstrum": 6888,
      "ĠMoon": 6889,
      "Ġfrowning": 6890,
      "Some": 6891,
      "ivity": 6892,
      "Buddy": 6893,
      "Ġmarker": 6894,
      "yond": 6895,
      "Ġbeyond": 6896,
      "ĠFire": 6897,
      "Ġpresses": 6898,
      "Ġfart": 6899,
      "Ġdamage": 6900,
      "ivery": 6901,
      "ammy": 6902,
      "ĠAlong": 6903,
      "iece": 6904,
      "ĠFarm": 6905,
      "jo": 6906,
      "Beep": 6907,
      "Ġhealth": 6908,
      "Ġwhispers": 6909,
      "Ġslips": 6910,
      "Ġswimsuit": 6911,
      "Ġflapping": 6912,
      "Ġwarmer": 6913,
      "ĠEmmy": 6914,
      "ĠMartha": 6915,
      "Ġtiptoed": 6916,
      "Ġregretted": 6917,
      "ĠSim": 6918,
      "itted": 6919,
      "Ġlaying": 6920,
      "Ġyelp": 6921,
      "ades": 6922,
      "Ġeverybody": 6923,
      "Ġglued": 6924,
      "Ġrains": 6925,
      "ĠStretch": 6926,
      "ĠMabel": 6927,
      "Ġcreations": 6928,
      "Ġhearing": 6929,
      "Ġcolder": 6930,
      "iversity": 6931,
      "ael": 6932,
      "nk": 6933,
      "Ġshaped": 6934,
      "Ġfins": 6935,
      "Ġstreets": 6936,
      "Ġcushions": 6937,
      "Ġrusty": 6938,
      "ĠSw": 6939,
      "Ġfarthest": 6940,
      "Ġcreativity": 6941,
      "ĠMa": 6942,
      "Ġsale": 6943,
      "ans": 6944,
      "ĠToot": 6945,
      "iam": 6946,
      "Ġstrongest": 6947,
      "Ġfits": 6948,
      "ibbit": 6949,
      "Ġbells": 6950,
      "Ġdollars": 6951,
      "Ġearn": 6952,
      "ĠRon": 6953,
      "angle": 6954,
      "Ġlending": 6955,
      "ĠBeaky": 6956,
      "eese": 6957,
      "Ġcashier": 6958,
      "Ġincluding": 6959,
      "Ġsank": 6960,
      "Ġsniffs": 6961,
      "Ġraincoat": 6962,
      "Ġstopping": 6963,
      "Ġtrembled": 6964,
      "Ġsource": 6965,
      "Always": 6966,
      "iti": 6967,
      "Ġindeed": 6968,
      "Ġwobbly": 6969,
      "ters": 6970,
      "ĠFarmer": 6971,
      "Ġguests": 6972,
      "Ġsingle": 6973,
      "Ġrecommended": 6974,
      "ĠGranny": 6975,
      "Ġspells": 6976,
      "ĠTia": 6977,
      "Ġaccomplishment": 6978,
      "Ġbelts": 6979,
      "Ġsurprising": 6980,
      "Ġends": 6981,
      "ĠAfterwards": 6982,
      "ĠSnowman": 6983,
      "Ġhopeful": 6984,
      "ĠTake": 6985,
      "eal": 6986,
      "Ġseasons": 6987,
      "Ġplans": 6988,
      "Jump": 6989,
      "ichael": 6990,
      "Ġencourag": 6991,
      "Ġsupported": 6992,
      "stick": 6993,
      "Ġsuffered": 6994,
      "Ġartist": 6995,
      "illed": 6996,
      "Ġperformance": 6997,
      "eet": 6998,
      "Ġslowed": 6999,
      "Ġgross": 7000,
      "Ġflavors": 7001,
      "iding": 7002,
      "Ġspins": 7003,
      "ertain": 7004,
      "cho": 7005,
      "Ġlabels": 7006,
      "ĠSimon": 7007,
      "Ġdelivery": 7008,
      "Ġraindrops": 7009,
      "uing": 7010,
      "arac": 7011,
      "Ġraccoon": 7012,
      "Ġforgiving": 7013,
      "obody": 7014,
      "Ġpours": 7015,
      "ility": 7016,
      "Ġstands": 7017,
      "Ġturtles": 7018,
      "Ġvanilla": 7019,
      "ĠBones": 7020,
      "ĠMichael": 7021,
      "uess": 7022,
      "Ġbeam": 7023,
      "Ġrecipe": 7024,
      "Ġtying": 7025,
      "ĠSpirit": 7026,
      "Ġgeese": 7027,
      "Ġwilling": 7028,
      "Ġdrawn": 7029,
      "Ġrobber": 7030,
      "Ġwept": 7031,
      "Ġcharac": 7032,
      "ĠKit": 7033,
      "Ġcorners": 7034,
      "Ġpops": 7035,
      "ĠHolly": 7036,
      "elia": 7037,
      "Ġqueens": 7038,
      "Ġdie": 7039,
      "Ġsailboat": 7040,
      "ĠBarky": 7041,
      "Ġgrip": 7042,
      "Ġdrivers": 7043,
      "itude": 7044,
      "Ġmoo": 7045,
      "Ġimagining": 7046,
      "Ġhallway": 7047,
      "Ġseconds": 7048,
      "Vroom": 7049,
      "ĠAna": 7050,
      "ĠJump": 7051,
      "Ġpreparing": 7052,
      "Ġwidened": 7053,
      "Mine": 7054,
      "Ġcoop": 7055,
      "Ġgrocer": 7056,
      "ĠPatch": 7057,
      "Ġtalented": 7058,
      "ĠJanie": 7059,
      "Ġsailors": 7060,
      "ummies": 7061,
      "ĠTiti": 7062,
      "Tr": 7063,
      "lling": 7064,
      "Ġaside": 7065,
      "Ġsofter": 7066,
      "Ġwatering": 7067,
      "Ġknots": 7068,
      "Ġsending": 7069,
      "Ġtipped": 7070,
      "Ġunsure": 7071,
      "Ġtreehouse": 7072,
      "Ġhoriz": 7073,
      "ĠPh": 7074,
      "Ġnotes": 7075,
      "Ġecho": 7076,
      "igers": 7077,
      "Ġachieved": 7078,
      "ĠExc": 7079,
      "ĠCrab": 7080,
      "Ġhorizon": 7081,
      "Ġsqueak": 7082,
      "Ġdelivering": 7083,
      "ĠPlay": 7084,
      "Ġhotter": 7085,
      "Ġpleasure": 7086,
      "ĠZee": 7087,
      "Ġpupils": 7088,
      "Ġburrow": 7089,
      "Ġangels": 7090,
      "Ġcuriously": 7091,
      "Ġyum": 7092,
      "Ġblinking": 7093,
      "Ġdet": 7094,
      "Ġtweet": 7095,
      "Ġsymbols": 7096,
      "wk": 7097,
      "Ġpassen": 7098,
      "Ġtummies": 7099,
      "Ġtiss": 7100,
      "Ġpigeons": 7101,
      "Ġfigures": 7102,
      "umbling": 7103,
      "Ġbandages": 7104,
      "ĠTurt": 7105,
      "Ġcoup": 7106,
      "oey": 7107,
      "ĠSl": 7108,
      "Ġrobots": 7109,
      "Ġtossed": 7110,
      "Ġhour": 7111,
      "Ġbackwards": 7112,
      "Ġroars": 7113,
      "alph": 7114,
      "Ġmerma": 7115,
      "Ġrather": 7116,
      "atur": 7117,
      "ĠTess": 7118,
      "ighting": 7119,
      "Ġgroceries": 7120,
      "Ġzipping": 7121,
      "ĠZoey": 7122,
      "Ġunw": 7123,
      "ĠExcited": 7124,
      "Ġamong": 7125,
      "Ġicing": 7126,
      "Ġblown": 7127,
      "Put": 7128,
      "ĠThanks": 7129,
      "Ġrumble": 7130,
      "Ġafterwards": 7131,
      "!âĢĿ.": 7132,
      "ipper": 7133,
      "Ġscrewd": 7134,
      "Ġglee": 7135,
      "Ġsped": 7136,
      "Ġprove": 7137,
      "ushing": 7138,
      "Ġdip": 7139,
      "Ġovercome": 7140,
      "Ġsurfboard": 7141,
      "Quack": 7142,
      "print": 7143,
      "Ġshovels": 7144,
      "Ġslices": 7145,
      "ĠJackie": 7146,
      "Ġmerry": 7147,
      "Ġmate": 7148,
      "ĠRalph": 7149,
      "Ġwobble": 7150,
      "ĠWendy": 7151,
      "Ġheading": 7152,
      "Ġdisturbing": 7153,
      "ĠAbi": 7154,
      "ĠWo": 7155,
      "Ġswall": 7156,
      "Ġreversed": 7157,
      "Ġfirefighters": 7158,
      "Ġswallowed": 7159,
      "Ġchip": 7160,
      "Ġscored": 7161,
      "Ġflipped": 7162,
      "eds": 7163,
      "Ġsqueezing": 7164,
      "Ġwaking": 7165,
      "Ġintrigued": 7166,
      "ĠMarie": 7167,
      "Ġmaker": 7168,
      "Ġpuff": 7169,
      "awn": 7170,
      "Ġhawk": 7171,
      "usty": 7172,
      "Ġencouraging": 7173,
      "Ġaud": 7174,
      "ĠLenny": 7175,
      "Very": 7176,
      "onies": 7177,
      "ĠWilly": 7178,
      "Ġchos": 7179,
      "Ġchosen": 7180,
      "ĠDavey": 7181,
      "Ġcouple": 7182,
      "the": 7183,
      "Ġdesigns": 7184,
      "ĠDes": 7185,
      "Ġslipping": 7186,
      "Ġscrewdriver": 7187,
      "Ġsquishy": 7188,
      "Like": 7189,
      "Ġgardener": 7190,
      "Ġcenter": 7191,
      "Ġrivers": 7192,
      "Ġmarkers": 7193,
      "Ġrespond": 7194,
      "Ġtigers": 7195,
      "iley": 7196,
      "Ġjars": 7197,
      "pecting": 7198,
      "Ġfrowns": 7199,
      "bird": 7200,
      "Ġfluttered": 7201,
      "Ġfirefighter": 7202,
      "Ġsecure": 7203,
      "Ġsuits": 7204,
      "Ġsprinkled": 7205,
      "Ġcreamy": 7206,
      "Ġbru": 7207,
      "ashes": 7208,
      "Ġsharks": 7209,
      "Ġignoring": 7210,
      "Ġgiggles": 7211,
      "ĠSleep": 7212,
      "ĠTweetie": 7213,
      "Ribbit": 7214,
      "Ġtighter": 7215,
      "Ġtissue": 7216,
      "Ġfirmly": 7217,
      "Bl": 7218,
      "ĠNobody": 7219,
      "ĠJacky": 7220,
      "Ġshown": 7221,
      "ĠRoo": 7222,
      "Ġfamiliar": 7223,
      "fly": 7224,
      "Ġthorns": 7225,
      "ĠTime": 7226,
      "Ġdrawers": 7227,
      "child": 7228,
      "Ġdef": 7229,
      "Ġexpress": 7230,
      "ĠJudy": 7231,
      "Ġdaring": 7232,
      "ments": 7233,
      "Ġcrossing": 7234,
      "Ġaudience": 7235,
      "ĠSince": 7236,
      "Ġcloudy": 7237,
      "Ġperforming": 7238,
      "Ġcoloured": 7239,
      "Ġcor": 7240,
      "Ġais": 7241,
      "ĠTurtle": 7242,
      "rat": 7243,
      "Ġpedaled": 7244,
      "Ġmixture": 7245,
      "Ġgracefully": 7246,
      "ggy": 7247,
      "Fr": 7248,
      "Ġ2": 7249,
      "Ġhaircuts": 7250,
      "Ġyielded": 7251,
      "Ġponies": 7252,
      "Ġdisob": 7253,
      "Ġcrowns": 7254,
      "Ġbits": 7255,
      "Fin": 7256,
      "Get": 7257,
      "Ġtodd": 7258,
      "Ġhangers": 7259,
      "Ġnervously": 7260,
      "bbled": 7261,
      "ĠChewy": 7262,
      "ĠKip": 7263,
      "ĠTodd": 7264,
      "Ġpays": 7265,
      "Ġpeck": 7266,
      "Ġev": 7267,
      "Ġstroke": 7268,
      "fall": 7269,
      "Ġnapped": 7270,
      "Ġrespected": 7271,
      "aven": 7272,
      "Ġminded": 7273,
      "ĠWise": 7274,
      "ĠMomma": 7275,
      "ddie": 7276,
      "ably": 7277,
      "ĠAli": 7278,
      "Ġtested": 7279,
      "Boys": 7280,
      "ading": 7281,
      "parent": 7282,
      "ĠMaddie": 7283,
      "arrow": 7284,
      "ĠUniversity": 7285,
      "Ġbeeh": 7286,
      "Ġneighbours": 7287,
      "Ġsurfing": 7288,
      "ĠBally": 7289,
      "First": 7290,
      "vered": 7291,
      "Ġshady": 7292,
      "ĠYet": 7293,
      "Ġdarl": 7294,
      "iona": 7295,
      "Ġmagician": 7296,
      "Ġenthusiasm": 7297,
      "Ġdarlings": 7298,
      "Ġwisely": 7299,
      "Ġstitches": 7300,
      "ĠJojo": 7301,
      "Ġsails": 7302,
      "ĠYog": 7303,
      "Ġthoughts": 7304,
      "Ġweekend": 7305,
      "Ġreminds": 7306,
      "fted": 7307,
      "ĠMina": 7308,
      "Ġtemper": 7309,
      "oring": 7310,
      "ilted": 7311,
      "antha": 7312,
      "Ġfleas": 7313,
      "Ġsurroundings": 7314,
      "Ġspits": 7315,
      "Ġteams": 7316,
      "Ġfills": 7317,
      "Ġlessons": 7318,
      "een": 7319,
      "Ġflip": 7320,
      "Dear": 7321,
      "Ġpaintbrush": 7322,
      "Ġmelons": 7323,
      "ĠPuppy": 7324,
      "Ġmermaid": 7325,
      "Bang": 7326,
      "ĠAlthough": 7327,
      "ĠOutside": 7328,
      "ĠWin": 7329,
      "Ġgrandchild": 7330,
      "Ġexplo": 7331,
      "Ġelbow": 7332,
      "Ġhoops": 7333,
      "ĠSoft": 7334,
      "ĠCu": 7335,
      "Ġsports": 7336,
      "Ġlies": 7337,
      "ĠFighting": 7338,
      "rac": 7339,
      "ĠFiona": 7340,
      "Ġpanicked": 7341,
      "Ġamount": 7342,
      "Ġcleaner": 7343,
      "cused": 7344,
      "Ġlongest": 7345,
      "ĠSamantha": 7346,
      "Ġscooters": 7347,
      "Ġlent": 7348,
      "ĠSadie": 7349,
      "Ġsill": 7350,
      "ita": 7351,
      "Ġbeloved": 7352,
      "immering": 7353,
      "Ġbeehive": 7354,
      "Alright": 7355,
      "lle": 7356,
      "ongrat": 7357,
      "oni": 7358,
      "Ġoysters": 7359,
      "Ġgrandparent": 7360,
      "ĠMixy": 7361,
      "ongratul": 7362,
      "Guess": 7363,
      "ĠMother": 7364,
      "Ġforgiven": 7365,
      "Ġmagazines": 7366,
      "ĠSparkle": 7367,
      "Ġarr": 7368,
      "Ġelf": 7369,
      "ces": 7370,
      "Ġrepeating": 7371,
      "Ġdiscussed": 7372,
      "ĠDani": 7373,
      "Ġsweetest": 7374,
      "Ġwadd": 7375,
      "ĠEverybody": 7376,
      "Ġreass": 7377,
      "Keep": 7378,
      "Ġnightmares": 7379,
      "Ġtubes": 7380,
      "Ġunderstands": 7381,
      "Ġspoonful": 7382,
      "Ġnood": 7383,
      "ĠPen": 7384,
      "Ġbathing": 7385,
      "asty": 7386,
      "Ġmanners": 7387,
      "Ġsweep": 7388,
      "crow": 7389,
      "Ġbully": 7390,
      "Ġnur": 7391,
      "Ġwrink": 7392,
      "Ġsprang": 7393,
      "Ġguide": 7394,
      "Ġcrew": 7395,
      "ĠMint": 7396,
      "ĠAmelia": 7397,
      "omise": 7398,
      "onna": 7399,
      "Ġbreathed": 7400,
      "ently": 7401,
      "ilda": 7402,
      "steps": 7403,
      "while": 7404,
      "ĠWell": 7405,
      "ĠKe": 7406,
      "Ġbulbs": 7407,
      "Ġcoug": 7408,
      "Ġneare": 7409,
      "Ġgrassy": 7410,
      "Ġspies": 7411,
      "Ġtesting": 7412,
      "Ġwiggly": 7413,
      "ĠEddie": 7414,
      "Ġsolving": 7415,
      "Ġsheets": 7416,
      "Ġfootsteps": 7417,
      "ĠStart": 7418,
      "immy": 7419,
      "ntil": 7420,
      "Ġspeeding": 7421,
      "Doggy": 7422,
      "hew": 7423,
      "Ġfocused": 7424,
      "cept": 7425,
      "ounced": 7426,
      "?!\"": 7427,
      "ĠHerb": 7428,
      "Ġbraver": 7429,
      "Ġcamel": 7430,
      "Ġmesmerized": 7431,
      "Ġhesitant": 7432,
      "Ġlicking": 7433,
      "Ġrushing": 7434,
      "ĠAngel": 7435,
      "Moo": 7436,
      "Ġjoining": 7437,
      "Ġpolar": 7438,
      "Ġgreeted": 7439,
      "Ġworn": 7440,
      "Ġchanges": 7441,
      "ĠUntil": 7442,
      "Ġmaterials": 7443,
      "undred": 7444,
      "ĠDespite": 7445,
      "ĠBess": 7446,
      "Ġstored": 7447,
      "Which": 7448,
      "Ġbicycles": 7449,
      "Ġmast": 7450,
      "ĠBack": 7451,
      "Ġanger": 7452,
      "Ġpeacefully": 7453,
      "Leave": 7454,
      "Ġships": 7455,
      "ĠShow": 7456,
      "Tweet": 7457,
      "Ġspice": 7458,
      "Ġnuzz": 7459,
      "Ġgonna": 7460,
      "Ġterrified": 7461,
      "ĠCow": 7462,
      "Ġpolitely": 7463,
      "Ġscarecrow": 7464,
      "Ġspills": 7465,
      "ĠMean": 7466,
      "Ġknives": 7467,
      "ĠMeg": 7468,
      "Ġevil": 7469,
      "ppies": 7470,
      "Ġburying": 7471,
      "Billy": 7472,
      "ca": 7473,
      "On": 7474,
      "Ġaren": 7475,
      "Ġhealing": 7476,
      "Ġdonkey": 7477,
      "Ġaeroplanes": 7478,
      "freeze": 7479,
      "Ġmiles": 7480,
      "Ġseals": 7481,
      "agic": 7482,
      "Ġscattering": 7483,
      "Ġdump": 7484,
      "amboo": 7485,
      "ĠNice": 7486,
      "Ġworrying": 7487,
      "Mimi": 7488,
      "ĠGary": 7489,
      "zoom": 7490,
      "beep": 7491,
      "--": 7492,
      "Ġpuzzled": 7493,
      "Ġstacked": 7494,
      "ĠRuth": 7495,
      "Ġloses": 7496,
      "dding": 7497,
      "Ġbaskets": 7498,
      "Ġtravelled": 7499,
      "ĠOkay": 7500,
      "Ġblast": 7501,
      "Ġgazing": 7502,
      "ĠChess": 7503,
      "erm": 7504,
      "ĠFairy": 7505,
      "ipes": 7506,
      "Ġtemperature": 7507,
      "Ġund": 7508,
      "Ġclue": 7509,
      "Ġtasting": 7510,
      "Ġdripping": 7511,
      "Ġbelieving": 7512,
      "Ġ10": 7513,
      "Ġpinching": 7514,
      "Ġsoaking": 7515,
      "Ġrats": 7516,
      "Hurry": 7517,
      "isc": 7518,
      "ĠPoor": 7519,
      "Ġsandy": 7520,
      "ĠIsn": 7521,
      "rect": 7522,
      "ĠMindy": 7523,
      "rey": 7524,
      "ĠMeanwhile": 7525,
      "ĠHug": 7526,
      "ĠNavy": 7527,
      "Ġbanged": 7528,
      "Ġpunishment": 7529,
      "Ġhumans": 7530,
      "Ġcrashing": 7531,
      "ĠSof": 7532,
      "Ġhundred": 7533,
      "Ġgest": 7534,
      "ĠBra": 7535,
      "Ġswimmer": 7536,
      "ĠTe": 7537,
      "Ġsnowflakes": 7538,
      "Ġrelaxing": 7539,
      "form": 7540,
      "Ġresisted": 7541,
      "ĠStan": 7542,
      "Ġbeeped": 7543,
      "Ġquarreled": 7544,
      "Ġramp": 7545,
      "elie": 7546,
      "Ġjoins": 7547,
      "ĠStill": 7548,
      "abby": 7549,
      "ĠDina": 7550,
      "Ġbackpacks": 7551,
      "ĠEliz": 7552,
      "Ġdressing": 7553,
      "Ġdelayed": 7554,
      "years": 7555,
      "ĠCr": 7556,
      "Ġtoddler": 7557,
      "Ġflight": 7558,
      "Ġcovering": 7559,
      "ĠAnother": 7560,
      "orter": 7561,
      "Ġbenches": 7562,
      "Quick": 7563,
      "Ġencouragement": 7564,
      "Ġtoward": 7565,
      "ĠMaddy": 7566,
      "Ġscraped": 7567,
      "Open": 7568,
      "Ġfocus": 7569,
      "Ġpurpose": 7570,
      "Ġcorrect": 7571,
      "'.\"": 7572,
      "Ġlipstick": 7573,
      "Ġbamboo": 7574,
      "ider": 7575,
      "Ġpotion": 7576,
      "Ġpermitted": 7577,
      "Ġtwinkled": 7578,
      "Ġmonths": 7579,
      "Ġlanguages": 7580,
      "Ġorders": 7581,
      "Ġfreedom": 7582,
      "Ġmaster": 7583,
      "Ġpoppies": 7584,
      "ĠJudge": 7585,
      "Ġrisks": 7586,
      "ĠMaisy": 7587,
      "shm": 7588,
      "Ġnoodles": 7589,
      "Ġfaded": 7590,
      "ĠBlinky": 7591,
      "Ġwounds": 7592,
      "All": 7593,
      "rier": 7594,
      "ĠLoop": 7595,
      "shmallow": 7596,
      "isions": 7597,
      "Ġbirdhouse": 7598,
      "Ġcreams": 7599,
      "Ġcells": 7600,
      "Ġannoyed": 7601,
      "opes": 7602,
      "Ġcheers": 7603,
      "Ġsniffing": 7604,
      "Ġadults": 7605,
      "Ġunwra": 7606,
      "Ġpuck": 7607,
      "ecca": 7608,
      "Ġfloats": 7609,
      "Ġopinions": 7610,
      "ĠJonny": 7611,
      "ĠSofia": 7612,
      "Ġ5": 7613,
      "andas": 7614,
      "ĠRia": 7615,
      "ĠShelly": 7616,
      "Ġflown": 7617,
      "ĠEva": 7618,
      "Ġscen": 7619,
      "Ġhandsome": 7620,
      "Ġsneezes": 7621,
      "Kids": 7622,
      "Ġnodding": 7623,
      "Ġsmelling": 7624,
      "Ġburnt": 7625,
      "ĠRazor": 7626,
      "Ġdrifted": 7627,
      "bage": 7628,
      "Ġwithin": 7629,
      "Ġheight": 7630,
      "Ġscient": 7631,
      "Ġbothering": 7632,
      "Ġdamaged": 7633,
      "Ġslither": 7634,
      "Ġtearing": 7635,
      "Ġpleaded": 7636,
      "Ġinstruments": 7637,
      "Ġease": 7638,
      "ĠYoga": 7639,
      "Ġscientist": 7640,
      "Ġpound": 7641,
      "ĠSay": 7642,
      "Ġhanding": 7643,
      "Ġseller": 7644,
      "Ġgerm": 7645,
      "Ġwasting": 7646,
      "ĠFlick": 7647,
      "Ġfiles": 7648,
      "Ġdreamt": 7649,
      "Goodnight": 7650,
      "Ġresults": 7651,
      "ĠZippy": 7652,
      "bell": 7653,
      "Ġexplains": 7654,
      "Ġdestroying": 7655,
      "Ġbrushing": 7656,
      "Ġhiss": 7657,
      "ousy": 7658,
      "Ġcharacters": 7659,
      "Ġcertain": 7660,
      "Ġsweaty": 7661,
      "unched": 7662,
      "ĠMegan": 7663,
      "Ġbusiness": 7664,
      "ĠPrince": 7665,
      "In": 7666,
      "ĠHoney": 7667,
      "Ġonward": 7668,
      "ĠFe": 7669,
      "Ġtalents": 7670,
      "Ġbravest": 7671,
      "Ġengines": 7672,
      "ition": 7673,
      "Ġsternly": 7674,
      "Ġswirl": 7675,
      "Ġpostman": 7676,
      "Ġmosquitoes": 7677,
      "prints": 7678,
      "Ġminds": 7679,
      "cake": 7680,
      "under": 7681,
      "Ġtuck": 7682,
      "Ġscares": 7683,
      "ĠRicky": 7684,
      "Ġstomp": 7685,
      "Ġapologised": 7686,
      "Ġmanag": 7687,
      "Ġbitten": 7688,
      "ĠSe": 7689,
      "Ġsnuck": 7690,
      "ĠGerry": 7691,
      "Sn": 7692,
      "uel": 7693,
      "Ġtilted": 7694,
      "Ġswitched": 7695,
      "Ġdecisions": 7696,
      "Ġreminding": 7697,
      "attered": 7698,
      "ĠFrankie": 7699,
      "Ġsingers": 7700,
      "Ġdesper": 7701,
      "ĠShadow": 7702,
      "Ġbehavior": 7703,
      "bbers": 7704,
      "Ġsqueaked": 7705,
      "Ġpeeled": 7706,
      "Try": 7707,
      "ashing": 7708,
      "ĠCari": 7709,
      "inny": 7710,
      "Ġyumm": 7711,
      "Ġpurrs": 7712,
      "ĠMousy": 7713,
      "Ġsmashed": 7714,
      "ĠRuff": 7715,
      "Ġtreated": 7716,
      "Ġdisplayed": 7717,
      "Ġrustling": 7718,
      "Ġneatly": 7719,
      "Ġmatey": 7720,
      "Ġplanting": 7721,
      "An": 7722,
      "Ġmarshmallow": 7723,
      "ĠKaty": 7724,
      "Ġinsp": 7725,
      "Big": 7726,
      "Ġsy": 7727,
      "Ġcracks": 7728,
      "Ġbellies": 7729,
      "Ġyelped": 7730,
      "Ġgrandparents": 7731,
      "aver": 7732,
      "Ġscamp": 7733,
      "ĠNut": 7734,
      "Ġshines": 7735,
      "Ġhoo": 7736,
      "Ġfailed": 7737,
      "Ġcoloring": 7738,
      "ĠFishy": 7739,
      "ĠMake": 7740,
      "ĠLuc": 7741,
      "line": 7742,
      "Ġzooms": 7743,
      "rup": 7744,
      "Ġnasty": 7745,
      "Ġbreathing": 7746,
      "Ġcombed": 7747,
      "Ġpandas": 7748,
      "Ġdespite": 7749,
      "ĠCurious": 7750,
      "Ġaddress": 7751,
      "ĠTri": 7752,
      "ighing": 7753,
      "Ġwaterfall": 7754,
      "ĠCro": 7755,
      "uffin": 7756,
      "Tw": 7757,
      "cc": 7758,
      "Ġrobbers": 7759,
      "Ġantic": 7760,
      "ĠNancy": 7761,
      "Ġwider": 7762,
      "ĠLouise": 7763,
      "ĠIm": 7764,
      "Ġdoorway": 7765,
      "ĠPatty": 7766,
      "Ġsweaters": 7767,
      "Ġechoed": 7768,
      "Ġedges": 7769,
      "omp": 7770,
      "Ġinj": 7771,
      "Ġforce": 7772,
      "Ġgap": 7773,
      "Ġdisobey": 7774,
      "wise": 7775,
      "Ġtar": 7776,
      "ĠRita": 7777,
      "Daisy": 7778,
      "orking": 7779,
      "oscope": 7780,
      "Ġmagnif": 7781,
      "Ġtaped": 7782,
      "father": 7783,
      "Ġaction": 7784,
      "Ġscolds": 7785,
      "Ġflaps": 7786,
      "Ġcrawls": 7787,
      "Ġgobbled": 7788,
      "Ġbacks": 7789,
      "Ġswap": 7790,
      "Ġwarri": 7791,
      "ĠViv": 7792,
      "Ġsteth": 7793,
      "Ġsever": 7794,
      "ĠGl": 7795,
      "Ġcurl": 7796,
      "Ġshinier": 7797,
      "Ġprobably": 7798,
      "Ġnewspapers": 7799,
      "ĠBang": 7800,
      "Ġocc": 7801,
      "ĠKelly": 7802,
      "Ġseveral": 7803,
      "Ġencount": 7804,
      "Wake": 7805,
      "Ġplucked": 7806,
      "Ġquieter": 7807,
      "Ġserving": 7808,
      "ĠShare": 7809,
      "Ġconnected": 7810,
      "tock": 7811,
      "Ġouch": 7812,
      "ĠNurse": 7813,
      "igger": 7814,
      "ĠFlo": 7815,
      "ĠJax": 7816,
      "Ġgesture": 7817,
      "Ġplot": 7818,
      "Ġdoorbell": 7819,
      "Ġstudent": 7820,
      "Ġcares": 7821,
      "Ġsquaw": 7822,
      "ĠBubba": 7823,
      "fire": 7824,
      "ĠJoh": 7825,
      "Ġrescuing": 7826,
      "Ġgrandson": 7827,
      "Ġgoo": 7828,
      "Ġspy": 7829,
      "Ġrows": 7830,
      "Ġsimply": 7831,
      "Ġwhistles": 7832,
      "mies": 7833,
      "ĠBri": 7834,
      "Play": 7835,
      "vant": 7836,
      "Ġshorter": 7837,
      "ĠPl": 7838,
      "Ġsnaps": 7839,
      "Ġastronauts": 7840,
      "Bunny": 7841,
      "ssss": 7842,
      "Ġunpacking": 7843,
      "Ġcottage": 7844,
      "Too": 7845,
      "Ġswo": 7846,
      "Ġaccidents": 7847,
      "For": 7848,
      "Ġmood": 7849,
      "Shrink": 7850,
      "ibi": 7851,
      "Ġswollen": 7852,
      "verse": 7853,
      "ĠKevin": 7854,
      "Zoom": 7855,
      "abelle": 7856,
      "Ġbothered": 7857,
      "ĠMuffin": 7858,
      "aint": 7859,
      "Ġstethoscope": 7860,
      "ĠAr": 7861,
      "ĠElle": 7862,
      "Ġcausing": 7863,
      "Ġtrusting": 7864,
      "ĠWooly": 7865,
      "ĠPhil": 7866,
      "ĠBad": 7867,
      "Ġdresser": 7868,
      "Ġleapt": 7869,
      "Ġsou": 7870,
      "found": 7871,
      "Ġpills": 7872,
      "Ġproper": 7873,
      "retty": 7874,
      "ears": 7875,
      "Ġthroughout": 7876,
      "Magic": 7877,
      "Ġrunner": 7878,
      "Ġprayers": 7879,
      "ĠNe": 7880,
      "Ġjoyful": 7881,
      "what": 7882,
      "ĠReady": 7883,
      "ĠVroom": 7884,
      "mates": 7885,
      "Ġlocks": 7886,
      "ĠWait": 7887,
      "ulp": 7888,
      "Ġgoats": 7889,
      "Ġtarget": 7890,
      "rest": 7891,
      "Ġdears": 7892,
      "ĠToys": 7893,
      "Ġmunch": 7894,
      "Ġflips": 7895,
      "Ġwaddled": 7896,
      "Ġlowered": 7897,
      "ĠPop": 7898,
      "Ġstepping": 7899,
      "ĠStartled": 7900,
      "ĠTaking": 7901,
      "ĠFlop": 7902,
      "Ġcons": 7903,
      "ĠSpeed": 7904,
      "Ġteachers": 7905,
      "Ġcowboy": 7906,
      "ĠDaniel": 7907,
      "Ġinches": 7908,
      "Ġenvelopes": 7909,
      "Ġchar": 7910,
      "ĠElsa": 7911,
      "ĠTy": 7912,
      "Ġexplorer": 7913,
      "Ġanticip": 7914,
      "Ġplayd": 7915,
      "unity": 7916,
      "ening": 7917,
      "ĠFel": 7918,
      "Ġfloors": 7919,
      "Ġknocking": 7920,
      "Ġefforts": 7921,
      "Ġuniforms": 7922,
      "lied": 7923,
      "Ġaware": 7924,
      "Ġfootprints": 7925,
      "Nice": 7926,
      "ĠBumpy": 7927,
      "Ġnearly": 7928,
      "llas": 7929,
      "ĠBibi": 7930,
      "Ġdisc": 7931,
      "Ġsens": 7932,
      "Ġwhimp": 7933,
      "Ġtrot": 7934,
      "Ġglitt": 7935,
      "Ġappreciation": 7936,
      "ĠBecky": 7937,
      "Ġnecks": 7938,
      "Ġchecks": 7939,
      "Ġcollap": 7940,
      "Ġlapt": 7941,
      "Ġexcept": 7942,
      "Ġplug": 7943,
      "ĠMin": 7944,
      "Ġcharge": 7945,
      "rie": 7946,
      "oosh": 7947,
      "ĠRog": 7948,
      "Ġfluttering": 7949,
      "Ġumbrellas": 7950,
      "Ġstamped": 7951,
      "ĠSeeing": 7952,
      "Ġsandcastles": 7953,
      "Ġstatues": 7954,
      "omb": 7955,
      "ails": 7956,
      "Ġshrank": 7957,
      "iscuit": 7958,
      "rily": 7959,
      "Ġfinishing": 7960,
      "Ġprick": 7961,
      "Ġadds": 7962,
      "ĠBiggy": 7963,
      "ĠOt": 7964,
      "rons": 7965,
      "ĠJoan": 7966,
      "Ġchocolates": 7967,
      "Ġhunters": 7968,
      "Ġstroll": 7969,
      "Ġdodged": 7970,
      "Blue": 7971,
      "Ġpassengers": 7972,
      "Ġgerms": 7973,
      "ĠVivi": 7974,
      "Ġwrigg": 7975,
      "Ġaprons": 7976,
      "Ġaisle": 7977,
      "ĠCle": 7978,
      "Ġsets": 7979,
      ".'\"": 7980,
      "Ġweeds": 7981,
      "Ġnovels": 7982,
      "order": 7983,
      "Ġdemanding": 7984,
      "ĠZipper": 7985,
      "Ġscratching": 7986,
      "Ġmeows": 7987,
      "ĠDe": 7988,
      "issa": 7989,
      "Ġnurses": 7990,
      "Ġminding": 7991,
      "Ġdiscussing": 7992,
      "Ġkilled": 7993,
      "urrender": 7994,
      "Ġdriveway": 7995,
      "Ġbecomes": 7996,
      "acy": 7997,
      "Ġhaird": 7998,
      "ĠOh": 7999,
      "ĠJason": 8000,
      "Ġtoolbox": 8001,
      "Ġlaptop": 8002,
      "Ġposit": 8003,
      "Ġattack": 8004,
      "Luna": 8005,
      "So": 8006,
      "sol": 8007,
      "Ġbounces": 8008,
      "Ġscampered": 8009,
      "Ġdeed": 8010,
      "Ġsprays": 8011,
      "Ġsupplied": 8012,
      "ĠSofty": 8013,
      "Ġtempt": 8014,
      "Ġburns": 8015,
      "Ġfriendships": 8016,
      "Ġsuggestion": 8017,
      "Every": 8018,
      "Ġslapping": 8019,
      "Ġclosing": 8020,
      "Arrr": 8021,
      "Ġbelongings": 8022,
      "Ġinvites": 8023,
      "Ġanticipation": 8024,
      "ĠRoger": 8025,
      "Ġform": 8026,
      "ĠEric": 8027,
      "Ġspringing": 8028,
      "Ġerase": 8029,
      "Ġcotton": 8030,
      "Ġrays": 8031,
      "Ġtwists": 8032,
      "ĠNever": 8033,
      "Ġforgives": 8034,
      "Ġsnuggle": 8035,
      "Ġshall": 8036,
      "Ġmodels": 8037,
      "ĠVicky": 8038,
      "ĠJolly": 8039,
      "ĠGus": 8040,
      "Ġhumming": 8041,
      "Ġmassages": 8042,
      "ĠMan": 8043,
      "Ġnewfound": 8044,
      "Ġconc": 8045,
      "Ġresponded": 8046,
      "Ġexpecting": 8047,
      "Ġghosts": 8048,
      "Ġcheated": 8049,
      "Does": 8050,
      "ots": 8051,
      "ĠYawn": 8052,
      "ĠFlutter": 8053,
      "otte": 8054,
      "Ġtraveling": 8055,
      "Ġalthough": 8056,
      "Ġcond": 8057,
      "Ġbattle": 8058,
      "Ġmommies": 8059,
      "alloween": 8060,
      "Friend": 8061,
      "Ġaim": 8062,
      "Ġcarries": 8063,
      "Ġinvitations": 8064,
      "ĠMae": 8065,
      "ĠAg": 8066,
      "Ġrefreshing": 8067,
      "ĠRel": 8068,
      "Ġpresented": 8069,
      "Chirp": 8070,
      "Ġrowed": 8071,
      "Ġtwenty": 8072,
      "ĠGrand": 8073,
      "Ġsquir": 8074,
      "Someone": 8075,
      "ĠBingo": 8076,
      "Jane": 8077,
      "Ġfoxes": 8078,
      "Ġcooper": 8079,
      "ĠâĢĶ": 8080,
      "Ġfinal": 8081,
      "Ġduckling": 8082,
      "ĠElsie": 8083,
      "ĠZack": 8084,
      "Ġcafe": 8085,
      "ĠGray": 8086,
      "ĠDotty": 8087,
      "Ġmarshmallows": 8088,
      "Ġclicked": 8089,
      "ĠFreddie": 8090,
      "Ġbeaver": 8091,
      "Ġdesigning": 8092,
      "Ġjets": 8093,
      "five": 8094,
      "ĠHalloween": 8095,
      "ĠWhoever": 8096,
      "Ġmugs": 8097,
      "Ġdrown": 8098,
      "po": 8099,
      "onnie": 8100,
      "Ġtricycle": 8101,
      "Ġconvin": 8102,
      "Ġpicnics": 8103,
      "Ġoppos": 8104,
      "iens": 8105,
      "ĠTerry": 8106,
      "inted": 8107,
      "ĠCharlotte": 8108,
      "Un": 8109,
      "Ġcongratul": 8110,
      "Ġscoops": 8111,
      "off": 8112,
      "Ġaliens": 8113,
      "Ġtravels": 8114,
      "Ġtests": 8115,
      "Ġquestioned": 8116,
      "ĠLina": 8117,
      "ĠPiggy": 8118,
      "Ġstrips": 8119,
      "ana": 8120,
      "Ġdefe": 8121,
      "covered": 8122,
      "ĠTruck": 8123,
      "hel": 8124,
      "ended": 8125,
      "Ġfights": 8126,
      "ĠChick": 8127,
      "roken": 8128,
      "Ġopposite": 8129,
      "Hmm": 8130,
      "Ġrout": 8131,
      "Ġgrandfather": 8132,
      "Ġafford": 8133,
      "Ġencountered": 8134,
      "Ġdecl": 8135,
      "inch": 8136,
      "Whiskers": 8137,
      "ĠMore": 8138,
      "Ġraising": 8139,
      "iment": 8140,
      "Ġupside": 8141,
      "Ġflashed": 8142,
      "Ġcalmly": 8143,
      "Ġrealizes": 8144,
      "Ġyawning": 8145,
      "Ġsincere": 8146,
      "ĠPlaying": 8147,
      "Find": 8148,
      "Ġbuddy": 8149,
      "ĠWilliam": 8150,
      "Ġcrystals": 8151,
      "aturday": 8152,
      "Ġcupcakes": 8153,
      "Ġbuckled": 8154,
      "ĠMissile": 8155,
      "byes": 8156,
      "ĠFlappy": 8157,
      "Ġwinners": 8158,
      "Ġdefin": 8159,
      "ĠSaturday": 8160,
      "ĠThunder": 8161,
      "ĠQuacky": 8162,
      "',": 8163,
      "Ġcaw": 8164,
      "Ġweapons": 8165,
      "Ġcheat": 8166,
      "shadow": 8167,
      "Ġpackages": 8168,
      "ĠAmanda": 8169,
      "Ġsacks": 8170,
      "Ġgoodbyes": 8171,
      "Ġcoach": 8172,
      "Ġattem": 8173,
      "Choo": 8174,
      "Ġmesses": 8175,
      "quet": 8176,
      "Ġconvers": 8177,
      "ĠNutty": 8178,
      "val": 8179,
      "ĠJet": 8180,
      "Ġcaps": 8181,
      "ĠCook": 8182,
      "Ġenem": 8183,
      "Ġenemies": 8184,
      "Em": 8185,
      "asha": 8186,
      "Ġscrub": 8187,
      "ĠTweety": 8188,
      "Ġyummiest": 8189,
      "Ball": 8190,
      "Ġswallow": 8191,
      "Ġreturning": 8192,
      "Ġadmiration": 8193,
      "romise": 8194,
      "Ġsprout": 8195,
      "Ġunable": 8196,
      "Ġbless": 8197,
      "Ġsadder": 8198,
      "Ġbrightest": 8199,
      "ugging": 8200,
      "Ġfreezing": 8201,
      "Ġrespon": 8202,
      "reverse": 8203,
      "Ġcosy": 8204,
      "Trust": 8205,
      "Ġresponse": 8206,
      "Molly": 8207,
      "iri": 8208,
      "Ġbride": 8209,
      "Ġdiamonds": 8210,
      "His": 8211,
      "stalk": 8212,
      "Ġreapp": 8213,
      "ooks": 8214,
      "Ġgarbage": 8215,
      "Ġhonking": 8216,
      "Ġopport": 8217,
      "Ġstretches": 8218,
      "Ġprevented": 8219,
      "Ġwhispering": 8220,
      "erk": 8221,
      "Ġodd": 8222,
      "Ġwhoever": 8223,
      "antastic": 8224,
      "Ġawful": 8225,
      "alth": 8226,
      "Ġjourneys": 8227,
      "Ġweighs": 8228,
      "Ġawoke": 8229,
      "ĠJean": 8230,
      "Brrr": 8231,
      "Ġdragonfly": 8232,
      "Ġtraps": 8233,
      "ĠShark": 8234,
      "ĠOliv": 8235,
      "Ġspices": 8236,
      "Ġborn": 8237,
      "atty": 8238,
      "ĠFloppy": 8239,
      "Ġclip": 8240,
      "Ġreassured": 8241,
      "Ġstall": 8242,
      "Ġbeanstalk": 8243,
      "Ġargum": 8244,
      "Ġexamining": 8245,
      "Ġbeetles": 8246,
      "Ġautomobiles": 8247,
      "Ġdefinitely": 8248,
      "mine": 8249,
      "ĠTammy": 8250,
      "ĠBub": 8251,
      "ici": 8252,
      "Ġvisitors": 8253,
      "Ġstuffing": 8254,
      "Ġplaydate": 8255,
      "Ġwashes": 8256,
      "ĠAny": 8257,
      "broken": 8258,
      "cie": 8259,
      "Ġwiser": 8260,
      "Ġcustomer": 8261,
      "ĠWolf": 8262,
      "ĠTre": 8263,
      "emma": 8264,
      "uper": 8265,
      "Ġtravelling": 8266,
      "Ġbou": 8267,
      "ĠHello": 8268,
      "Ġhairdress": 8269,
      "Ġbouquet": 8270,
      ",'": 8271,
      "Ġtumbled": 8272,
      "orse": 8273,
      "ĠPick": 8274,
      "ĠJaney": 8275,
      "Ġdecoration": 8276,
      "Ġcampfire": 8277,
      "ĠAmber": 8278,
      "Ġbud": 8279,
      "Ġhonesty": 8280,
      "action": 8281,
      "vy": 8282,
      "Ġbomb": 8283,
      "ĠJumpy": 8284,
      "Ġwelcoming": 8285,
      "Ġoffering": 8286,
      "ĠMagic": 8287,
      "Ġwealth": 8288,
      "Ġtroubles": 8289,
      "Ġincreasing": 8290,
      "Ġoccas": 8291,
      "Ġloudest": 8292,
      "Ġinspired": 8293,
      "Ġparted": 8294,
      "Ġgroan": 8295,
      "Ġtype": 8296,
      "ĠAshley": 8297,
      "Ġwhales": 8298,
      "becca": 8299,
      "ĠMoppy": 8300,
      "ĠRebecca": 8301,
      "ĠHar": 8302,
      "ĠEliza": 8303,
      "Ġdeclared": 8304,
      "Only": 8305,
      "Ġcorrectly": 8306,
      "fus": 8307,
      "ĠFly": 8308,
      "Ġcraft": 8309,
      "Ġbeaks": 8310,
      "Ġcleared": 8311,
      "athan": 8312,
      "ĠSal": 8313,
      "Ġcowboys": 8314,
      "ĠGabby": 8315,
      "Ġnuzzled": 8316,
      "Soon": 8317,
      "ĠSasha": 8318,
      "Ġexch": 8319,
      "Ġwarmly": 8320,
      "Ġprizes": 8321,
      "ĠBrian": 8322,
      "ĠDay": 8323,
      "ĠCici": 8324,
      "Ġrewards": 8325,
      "Ġobeyed": 8326,
      "Ġcustomers": 8327,
      "yl": 8328,
      "ĠSil": 8329,
      "Ġcomforting": 8330,
      "Ġsirens": 8331,
      "da": 8332,
      "ooky": 8333,
      "shaped": 8334,
      "Should": 8335,
      "Ġconnect": 8336,
      "match": 8337,
      "Ġtowns": 8338,
      "ĠRub": 8339,
      "ĠOlivia": 8340,
      "Ġrely": 8341,
      "iolet": 8342,
      "elieve": 8343,
      "Ġfantastic": 8344,
      "Ġtrigger": 8345,
      "Ġowns": 8346,
      "Ġbends": 8347,
      "Ġinsisting": 8348,
      "Ġspoiling": 8349,
      "Ġhairdresser": 8350,
      "Ġpipes": 8351,
      "Ġposes": 8352,
      "Ġshares": 8353,
      "Ġcleans": 8354,
      "Ġsupporting": 8355,
      "Ġsurrendered": 8356,
      "ĠTippy": 8357,
      "ĠBert": 8358,
      "rench": 8359,
      "Ġwrinkled": 8360,
      "Ġchopped": 8361,
      "ĠTyler": 8362,
      "Ġmoons": 8363,
      "Ġrecorder": 8364,
      "Ġbeaming": 8365,
      "Car": 8366,
      "ĠLight": 8367,
      "unes": 8368,
      "ellow": 8369,
      "Ġthanking": 8370,
      "Ġsnowy": 8371,
      "ĠGracie": 8372,
      "Ġscurry": 8373,
      "ĠPine": 8374,
      "Ġenjoyable": 8375,
      "Ġactive": 8376,
      "ĠStep": 8377,
      "Ġexperien": 8378,
      "Ġcoral": 8379,
      "ĠBaa": 8380,
      "Ġdollar": 8381,
      "Ġenviron": 8382,
      "worm": 8383,
      "elope": 8384,
      "Ġloc": 8385,
      "Ġstreamers": 8386,
      "bble": 8387,
      "udged": 8388,
      "ĠSweet": 8389,
      "inger": 8390,
      "Ġexamp": 8391,
      "ĠTwist": 8392,
      "Ġshorts": 8393,
      "Ġshooed": 8394,
      "Ġenvironment": 8395,
      "Ġill": 8396,
      "Ġscent": 8397,
      "Ġbruises": 8398,
      "oor": 8399,
      "uster": 8400,
      "Ġgrat": 8401,
      "ĠHopper": 8402,
      "Ġhisses": 8403,
      "ĠJoke": 8404,
      "Ġplugged": 8405,
      "acle": 8406,
      "Ġself": 8407,
      "Ġsteering": 8408,
      "ĠPretty": 8409,
      "Ġwarrior": 8410,
      "Ġvisits": 8411,
      "Ġexercises": 8412,
      "ĠMonkey": 8413,
      "over": 8414,
      "aptain": 8415,
      "Ġdangers": 8416,
      "Ġcuddles": 8417,
      "Ġsigning": 8418,
      "Ġunfortunately": 8419,
      "Ġsquished": 8420,
      "screen": 8421,
      "Ġdisappoint": 8422,
      "bee": 8423,
      "Ġpilots": 8424,
      "munk": 8425,
      "ĠNora": 8426,
      "Ġapplauding": 8427,
      "Ġgratitude": 8428,
      "alf": 8429,
      "ĠWil": 8430,
      "Ġproviding": 8431,
      "Ġting": 8432,
      "Ġtickles": 8433,
      "Ġbadger": 8434,
      "Ġnights": 8435,
      "Ġjud": 8436,
      "Ġstorms": 8437,
      "Ġconvinced": 8438,
      "Ġyoun": 8439,
      "Ġresponsib": 8440,
      "Ġchoosing": 8441,
      "Ġbrains": 8442,
      "Ġactivity": 8443,
      "Ġnearest": 8444,
      "Ġyoungest": 8445,
      "Ġexploded": 8446,
      "Ġarranged": 8447,
      "Ġcoughed": 8448,
      "Bella": 8449,
      "ĠOff": 8450,
      "Ġrewarding": 8451,
      "ĠAuntie": 8452,
      "good": 8453,
      "Ġbond": 8454,
      "Ġsunscreen": 8455,
      "Ġpeep": 8456,
      "erpiece": 8457,
      "ĠRufus": 8458,
      "Tree": 8459,
      "asers": 8460,
      "Ollie": 8461,
      "ĠFort": 8462,
      "ilities": 8463,
      "Ġannoying": 8464,
      "Grow": 8465,
      "sn": 8466,
      "ĠFlora": 8467,
      "Ġsoapy": 8468,
      "ĠBerry": 8469,
      "meow": 8470,
      "ĠTessa": 8471,
      "Ġlaces": 8472,
      "Ġrails": 8473,
      "Ġtapping": 8474,
      "Ġoffic": 8475,
      "Ġthreads": 8476,
      "Ġappreciated": 8477,
      "ĠHelen": 8478,
      "Ġweighing": 8479,
      "ĠCally": 8480,
      "boards": 8481,
      "Ġheartbroken": 8482,
      "Ġemerged": 8483,
      "Ġcongratulated": 8484,
      "ĠMicroscope": 8485,
      "Bear": 8486,
      "Danger": 8487,
      "Ġtin": 8488,
      "ĠTomorrow": 8489,
      "Ġclerk": 8490,
      "ĠGilly": 8491,
      "Ġcrocodiles": 8492,
      "Ġscram": 8493,
      "Ġattempt": 8494,
      "water": 8495,
      "Ġdial": 8496,
      "Ġsnug": 8497,
      "Ġmessed": 8498,
      "Ahoy": 8499,
      "Ġexample": 8500,
      "ĠJenn": 8501,
      "Ġhooks": 8502,
      "Ġtops": 8503,
      "Ġchipmunk": 8504,
      "Ġsoot": 8505,
      "Ġbathed": 8506,
      "Ġguarding": 8507,
      "Sarah": 8508,
      "ĠPenelope": 8509,
      "Ġmanager": 8510,
      "Pe": 8511,
      "ĠFortunately": 8512,
      "etah": 8513,
      "Ġmasterpiece": 8514,
      "ending": 8515,
      "ĠMart": 8516,
      "Ġerasers": 8517,
      "Ġfet": 8518,
      "Ġfinishes": 8519,
      "Ġtips": 8520,
      "Ġcommon": 8521,
      "ĠFelix": 8522,
      "Ġmemb": 8523,
      "Ġdigs": 8524,
      "Ġnibbled": 8525,
      "Ġtrotted": 8526,
      "Ġmembers": 8527,
      "ĠSet": 8528,
      "ĠFay": 8529,
      "Ġkinder": 8530,
      "Ġcheetah": 8531,
      "Ġexpert": 8532,
      "Ġblond": 8533,
      "Ġchews": 8534,
      "ĠPeggy": 8535,
      "Ġparticularly": 8536,
      "ircle": 8537,
      "Ġbeast": 8538,
      "Ġrips": 8539,
      "ĠRiri": 8540,
      "Ġargument": 8541,
      "ative": 8542,
      "Ġfaith": 8543,
      "ĠHelping": 8544,
      "Ab": 8545,
      "ĠSuper": 8546,
      "ĠAndrew": 8547,
      "Ġearned": 8548,
      "Ġobserving": 8549,
      "Ġforgiveness": 8550,
      "Ġcheaper": 8551,
      "Ġmischie": 8552,
      "Ġfishes": 8553,
      "Ġinstantly": 8554,
      "Ġexperienced": 8555,
      "Ġcages": 8556,
      "Ġgenerosity": 8557,
      "Ġmischievous": 8558,
      "Ġfoam": 8559,
      "Ġmeowing": 8560,
      "Mark": 8561,
      "mered": 8562,
      "ĠBarry": 8563,
      "ĠBuster": 8564,
      "Ġstores": 8565,
      "Ġgrandd": 8566,
      "ĠExcitedly": 8567,
      "Friends": 8568,
      "Ġmattered": 8569,
      "etchup": 8570,
      "Ġlimp": 8571,
      "Ġpasses": 8572,
      "ĠIce": 8573,
      "ĠCaptain": 8574,
      "Ġteles": 8575,
      "Ġsleeps": 8576,
      "ĠFle": 8577,
      "ĠPuffy": 8578,
      "Ġbreaths": 8579,
      "Ġrin": 8580,
      "ordinary": 8581,
      "Ġgasps": 8582,
      "ĠGill": 8583,
      "Got": 8584,
      "Ġrumbling": 8585,
      "Ġtrans": 8586,
      "Ġhatch": 8587,
      "ĠZog": 8588,
      "ĠMatilda": 8589,
      "abra": 8590,
      "Ġgrassho": 8591,
      "Ġsatisf": 8592,
      "Ġaccomplished": 8593,
      "Ġthump": 8594,
      "Ġstrum": 8595,
      "acing": 8596,
      "Ġmats": 8597,
      "Ġsmartest": 8598,
      "Ġtelescope": 8599,
      "Ġwhined": 8600,
      "ĠBobbie": 8601,
      "Ġmoat": 8602,
      "Ġjugg": 8603,
      "Ġfarmers": 8604,
      "Ġscrambled": 8605,
      "ĠMila": 8606,
      "Ġdrip": 8607,
      "Ġgardens": 8608,
      "Ġangrily": 8609,
      "Ġsyrup": 8610,
      "Ġcollapsed": 8611,
      "ouraged": 8612,
      "idey": 8613,
      "Ġforests": 8614,
      "Ġvegg": 8615,
      "Ġdiscoveries": 8616,
      "Ġstyles": 8617,
      "Ġexperiences": 8618,
      "Ġtor": 8619,
      "ĠTiger": 8620,
      "Ġfaint": 8621,
      "ering": 8622,
      "Ġmedals": 8623,
      "ĠCloud": 8624,
      "hole": 8625,
      "Chirpy": 8626,
      "Ġmeaning": 8627,
      "ĠDoes": 8628,
      "Ġconqu": 8629,
      "Ġcourt": 8630,
      "Ġotters": 8631,
      "Ġtypes": 8632,
      "pit": 8633,
      "Ġfif": 8634,
      "ĠLy": 8635,
      "adabra": 8636,
      "ĠWaff": 8637,
      "Ġsnapping": 8638,
      "Ġhardest": 8639,
      "acock": 8640,
      "Ġmovements": 8641,
      "Ġexpression": 8642,
      "Ġchilly": 8643,
      "ĠPig": 8644,
      "acles": 8645,
      "Ġbubbly": 8646,
      "Ġsurv": 8647,
      "Ġaffect": 8648,
      "ĠOtto": 8649,
      "Ġvests": 8650,
      "Ġunfair": 8651,
      "Ġtoothbrush": 8652,
      "Ġextraordinary": 8653,
      "Ġscores": 8654,
      "Ġmir": 8655,
      "ĠApp": 8656,
      "ĠButter": 8657,
      "Ġattitude": 8658,
      "ĠPeep": 8659,
      "Teddy": 8660,
      "Ġbluebird": 8661,
      "Ġhorri": 8662,
      "Ġvibr": 8663,
      "Once": 8664,
      "ĠPinch": 8665,
      "ĠRainbow": 8666,
      "mel": 8667,
      "lls": 8668,
      "Ġketchup": 8669,
      "ĠRight": 8670,
      "Ġspears": 8671,
      "Ġsooner": 8672,
      "Ġbehaviour": 8673,
      "Ġgrasshopper": 8674,
      "Ġhabit": 8675,
      "Ġpatches": 8676,
      "Ġmomma": 8677,
      "Ġafar": 8678,
      "Remy": 8679,
      "Ġpokes": 8680,
      "ĠLife": 8681,
      "ĠGold": 8682,
      "Ġthie": 8683,
      "Ġscri": 8684,
      "Ġthicker": 8685,
      "Ġicky": 8686,
      "Ġshrunk": 8687,
      "Ġclassmates": 8688,
      "Ġsqueezes": 8689,
      "Ġslithered": 8690,
      "ĠRosa": 8691,
      "Ġglittering": 8692,
      "Ġprickly": 8693,
      "Joe": 8694,
      "ĠBonnie": 8695,
      "Ġtopp": 8696,
      "Ġkneeling": 8697,
      "Ġannounced": 8698,
      "elling": 8699,
      "Ġpeacock": 8700,
      "plash": 8701,
      "Ġmarking": 8702,
      "ĠSand": 8703,
      "lt": 8704,
      "ĠSir": 8705,
      "ĠAchoo": 8706,
      "ctric": 8707,
      "Ġcosts": 8708,
      "ĠMelissa": 8709,
      "ĠAc": 8710,
      "Ġwatermel": 8711,
      "Ġzigzags": 8712,
      "ĠMixie": 8713,
      "Ġthieves": 8714,
      "Ġhood": 8715,
      "ĠLung": 8716,
      "Ġjumper": 8717,
      "Ġacts": 8718,
      "Ġskirts": 8719,
      "ĠSilver": 8720,
      "ĠSpidey": 8721,
      "Ġwolves": 8722,
      "Ġcocoon": 8723,
      "ĠAnnabelle": 8724,
      "Ġdrift": 8725,
      "Ġsqueaky": 8726,
      "Ġthumbs": 8727,
      "ĠAnimal": 8728,
      "Jimmy": 8729,
      "Ġboards": 8730,
      "ĠJelly": 8731,
      "ĠEd": 8732,
      "Ġwoodcut": 8733,
      "ounce": 8734,
      "Ġservant": 8735,
      "Baa": 8736,
      "idence": 8737,
      "Ġcheating": 8738,
      "ĠRiley": 8739,
      "bu": 8740,
      "cat": 8741,
      "lo": 8742,
      "Ġraking": 8743,
      "Ġtrading": 8744,
      "ĠMine": 8745,
      "ĠMath": 8746,
      "Ġexplaining": 8747,
      "Leo": 8748,
      "Ġbiscuit": 8749,
      "Ġtidied": 8750,
      "Ġluckily": 8751,
      "Ġlunchtime": 8752,
      "anced": 8753,
      "idy": 8754,
      "ĠInky": 8755,
      "Ġspilling": 8756,
      "Honey": 8757,
      "ĠUse": 8758,
      "ĠPaula": 8759,
      "ĠMonster": 8760,
      "Ġconcer": 8761,
      "Ġdesserts": 8762,
      "Ġtransform": 8763,
      "ror": 8764,
      "ĠLi": 8765,
      "ĠKy": 8766,
      "rough": 8767,
      "its": 8768,
      "Ġmessages": 8769,
      "Ġbeating": 8770,
      "Ġchill": 8771,
      "Ġwindowsill": 8772,
      "Mouse": 8773,
      "ĠBoom": 8774,
      "Ġseeking": 8775,
      "Ġactor": 8776,
      "amma": 8777,
      "sess": 8778,
      "ĠHi": 8779,
      "Ġforeshadow": 8780,
      "pril": 8781,
      "Never": 8782,
      "war": 8783,
      "Ġleans": 8784,
      "ĠCarla": 8785,
      "Ġhissing": 8786,
      "Ġflashing": 8787,
      "ĠJose": 8788,
      "Ġdev": 8789,
      "Ġcloths": 8790,
      "racadabra": 8791,
      "Ġwatermelon": 8792,
      "Ġfunn": 8793,
      "Ġteap": 8794,
      "Ġwinding": 8795,
      "Ġdiscouraged": 8796,
      "Ġpositive": 8797,
      "pop": 8798,
      "Ġdripped": 8799,
      "Ġcompete": 8800,
      "Ġforts": 8801,
      "ĠYummy": 8802,
      "ĠFeel": 8803,
      "Ġwoodcutter": 8804,
      "Ġpressing": 8805,
      "Ġdisagreeing": 8806,
      "Fire": 8807,
      "Freeze": 8808,
      "Ġglimmering": 8809,
      "ĠTooth": 8810,
      "Ġtidying": 8811,
      "Ġtrusts": 8812,
      "Ġkangaroos": 8813,
      "Ġveggies": 8814,
      "Ġlanding": 8815,
      "Ġtempted": 8816,
      "ĠBoat": 8817,
      "Ġdock": 8818,
      "icking": 8819,
      "ĠPeace": 8820,
      "lers": 8821,
      "Ġformed": 8822,
      "Ġshallow": 8823,
      "Ġoverw": 8824,
      "ĠChip": 8825,
      "ĠSteven": 8826,
      "ĠSlinky": 8827,
      "Ġteapot": 8828,
      "Ġ4": 8829,
      "Ġfade": 8830,
      "Ġrack": 8831,
      "ĠRatty": 8832,
      "flowers": 8833,
      "Ġworst": 8834,
      "Ġelectric": 8835,
      "Ġcops": 8836,
      "Ġapology": 8837,
      "creams": 8838,
      "ĠSqueak": 8839,
      "Grandpa": 8840,
      "Ġsleds": 8841,
      "Ġass": 8842,
      "upid": 8843,
      "Ġcomets": 8844,
      "Ġsav": 8845,
      "ĠCircle": 8846,
      "Ġpapa": 8847,
      "ĠHurry": 8848,
      "Ġsituations": 8849,
      "Ġconversation": 8850,
      "Ġofficers": 8851,
      "ĠWaffle": 8852,
      "ĠTip": 8853,
      "Ġslee": 8854,
      "ĠWoolly": 8855,
      "Sun": 8856,
      "Ġding": 8857,
      "storm": 8858,
      "Ġsuns": 8859,
      "âĢĿ,": 8860,
      "Ġpizzas": 8861,
      "Ġzips": 8862,
      "Ġmiller": 8863,
      "Ġstructures": 8864,
      "Ġscurrying": 8865,
      "Ġoverwhel": 8866,
      "Ġfoggy": 8867,
      "ĠSnake": 8868,
      "Ġgranddaughter": 8869,
      "ĠApril": 8870,
      "ĠBirds": 8871,
      "Ġwebs": 8872,
      "Ġdeserved": 8873,
      "ĠTra": 8874,
      "Ġcubs": 8875,
      "Ġopportunity": 8876,
      "ĠFaye": 8877,
      "iving": 8878,
      "Ġsnorted": 8879,
      "ĠRavi": 8880,
      "Ġrhino": 8881,
      "ĠYellow": 8882,
      "Ġdifferences": 8883,
      "ĠTell": 8884,
      "Ġquacking": 8885,
      "ĠImmediately": 8886,
      "oot": 8887,
      "Ġheaven": 8888,
      "ifully": 8889,
      "Ġinter": 8890,
      "Ġlevers": 8891,
      "Ġunlo": 8892,
      "Ġinchworm": 8893,
      "Jill": 8894,
      "ĠSmoke": 8895,
      "Ġapproach": 8896,
      "ssess": 8897,
      "Ġpossess": 8898,
      "ĠMole": 8899,
      "ĠMona": 8900,
      "Ġseagulls": 8901,
      "Ġcooperate": 8902,
      "sers": 8903,
      "ĠEver": 8904,
      "?âĢĿ.": 8905,
      "welcome": 8906,
      "ragon": 8907,
      "ĠFlopsy": 8908,
      "ĠOver": 8909,
      "Ġpose": 8910,
      "Ġdisappointment": 8911,
      "Ġdep": 8912,
      "ĠCars": 8913,
      "Ġspeaks": 8914,
      "Ġbinoc": 8915,
      "Ġsneaks": 8916,
      "sie": 8917,
      "Ġartwork": 8918,
      "snap": 8919,
      "Ġscowl": 8920,
      "Ġanswering": 8921,
      "Ġsurfed": 8922,
      "ĠLiza": 8923,
      "Rock": 8924,
      "Ġshortcut": 8925,
      "ĠViolet": 8926,
      "Ġsipped": 8927,
      "ĠCandy": 8928,
      "Ġrobin": 8929,
      "rick": 8930,
      "ssy": 8931,
      "Ġarrest": 8932,
      "ĠMus": 8933,
      "Ġreun": 8934,
      "Ġamused": 8935,
      "Ġribbit": 8936,
      "Ġunwrapped": 8937,
      "ugar": 8938,
      "Ġpepperoni": 8939,
      "Ġrepeats": 8940,
      "Ġapplause": 8941,
      "Ġkeyhole": 8942,
      "Ġcheckout": 8943,
      "Deal": 8944,
      "Ġvisitor": 8945,
      "Ġstriking": 8946,
      "Ġpaddling": 8947,
      "Ġpuppets": 8948,
      "Eat": 8949,
      "Ġunz": 8950,
      "Ġattacked": 8951,
      "Ġcroaked": 8952,
      "ĠBeef": 8953,
      "Ġspooky": 8954,
      "orsie": 8955,
      "uses": 8956,
      "ĠCon": 8957,
      "Ġbeautifully": 8958,
      "Ġgroaned": 8959,
      "gar": 8960,
      "cidents": 8961,
      "Ġchecking": 8962,
      "Ġswimsuits": 8963,
      "Ġconsider": 8964,
      "ĠMarch": 8965,
      "jest": 8966,
      "Ġgroom": 8967,
      "Ġwaters": 8968,
      "Lisa": 8969,
      "Ġinvent": 8970,
      "ĠLiam": 8971,
      "ĠJody": 8972,
      "otion": 8973,
      "Ġnets": 8974,
      "Ġexams": 8975,
      "ĠFind": 8976,
      "ĠRing": 8977,
      "Ġdrying": 8978,
      "Ġlump": 8979,
      "agine": 8980,
      "ĠCammy": 8981,
      "ĠJanet": 8982,
      "Ġshrugs": 8983,
      "Climb": 8984,
      "lest": 8985,
      "Ġsobbing": 8986,
      "Ġshyly": 8987,
      "Ġcheerfully": 8988,
      "Ġshoots": 8989,
      "Ġheels": 8990,
      "Ġhonks": 8991,
      "ĠBubu": 8992,
      "ili": 8993,
      "esses": 8994,
      "Ġshh": 8995,
      "Ġchin": 8996,
      "ĠDoug": 8997,
      "Emma": 8998,
      "anish": 8999,
      "ĠHorsie": 9000,
      "ĠGlow": 9001,
      "Ġhangs": 9002,
      "Ġhealthier": 9003,
      "Ġwhimpered": 9004,
      "icious": 9005,
      "Ġcaterpillars": 9006,
      "Ġfries": 9007,
      "Ġsquinted": 9008,
      "izzes": 9009,
      "Ġmagnifying": 9010,
      "Ġblamed": 9011,
      "Ġfascinating": 9012,
      "Ġsculp": 9013,
      "Ġtablet": 9014,
      "Ġfrustration": 9015,
      "Ġsculpture": 9016,
      "ouched": 9017,
      "Ġshimmering": 9018,
      "ĠThrough": 9019,
      "ĠHeli": 9020,
      "ĠMartin": 9021,
      "Ġposs": 9022,
      "Ġsuck": 9023,
      "edic": 9024,
      "ĠOld": 9025,
      "Ġnumbered": 9026,
      "Ġpleas": 9027,
      "ĠJohny": 9028,
      "ĠOxy": 9029,
      "ĠBa": 9030,
      "ĠPast": 9031,
      "Ġnibble": 9032,
      "ĠAlf": 9033,
      "ellie": 9034,
      "othy": 9035,
      "Ġflowing": 9036,
      "Ġbaa": 9037,
      "hings": 9038,
      "Ġgrumbled": 9039,
      "Ġraked": 9040,
      "oll": 9041,
      "Ġbuilder": 9042,
      "emy": 9043,
      "that": 9044,
      "Ġfacing": 9045,
      "Ġguards": 9046,
      "Ġpetting": 9047,
      "ĠLooking": 9048,
      "Ġswaying": 9049,
      "racted": 9050,
      "ĠFeeling": 9051,
      "ĠMatch": 9052,
      "Ġmysteries": 9053,
      "Ġsprinkle": 9054,
      "Ġdetails": 9055,
      "Ġflock": 9056,
      "Ġsnort": 9057,
      "Ġenemy": 9058,
      "eat": 9059,
      "amil": 9060,
      "ĠBun": 9061,
      "Ġgoodies": 9062,
      "ĠWhite": 9063,
      "Ġtextures": 9064,
      "Ġwig": 9065,
      "Ġpopping": 9066,
      "ulars": 9067,
      "ĠJohnson": 9068,
      "Ġcrops": 9069,
      "Ġmarve": 9070,
      "Ġcountries": 9071,
      "Ġfans": 9072,
      "Ġwildflowers": 9073,
      "Ġstacks": 9074,
      "how": 9075,
      "Ġknobs": 9076,
      "ĠQuickly": 9077,
      "Any": 9078,
      "Ġbushy": 9079,
      "Ġlocal": 9080,
      "Ġstew": 9081,
      "Ġbowing": 9082,
      "Ġangrier": 9083,
      "Ġhunting": 9084,
      "Sharing": 9085,
      "Ġdrowned": 9086,
      "Ġpeeped": 9087,
      "Ġbinoculars": 9088,
      "Ġmaps": 9089,
      "Ġniece": 9090,
      "Ġquizzes": 9091,
      "Ġmoonlight": 9092,
      "ĠDeal": 9093,
      "Ġoutfits": 9094,
      "ĠSleepy": 9095,
      "ĠTriangle": 9096,
      "OO": 9097,
      "Ġwrench": 9098,
      "ĠIcy": 9099,
      "Ġwhoosh": 9100,
      "Ġweaker": 9101,
      "Ġmindful": 9102,
      "Ġcrowded": 9103,
      "Ġendings": 9104,
      "ĠKn": 9105,
      "cycles": 9106,
      "ĠCoal": 9107,
      "Ġflashes": 9108,
      "ĠCut": 9109,
      "ĠCare": 9110,
      "Ġhesitation": 9111,
      "ĠWonder": 9112,
      "Ġproperty": 9113,
      "Ġboil": 9114,
      "ĠFix": 9115,
      "ĠSpicy": 9116,
      "Ġability": 9117,
      "Ġunless": 9118,
      "Ġfond": 9119,
      "Ġcarts": 9120,
      "Ġimaginations": 9121,
      "amiliar": 9122,
      "ĠOxygen": 9123,
      "getic": 9124,
      "Ġglared": 9125,
      "ĠAccidents": 9126,
      "ĠToo": 9127,
      "Ġhaven": 9128,
      "stand": 9129,
      "Ġknit": 9130,
      "Ġfolds": 9131,
      "Ġmicrow": 9132,
      "Ġspaces": 9133,
      "Ġunfamiliar": 9134,
      "saw": 9135,
      "ths": 9136,
      "Ġdirtier": 9137,
      "Ġresponsibility": 9138,
      "bank": 9139,
      "Ġpouch": 9140,
      "Momo": 9141,
      "ĠLeah": 9142,
      "Ġdesks": 9143,
      "Ġmicrowave": 9144,
      "ĠSurpr": 9145,
      "sey": 9146,
      "ĠTrucky": 9147,
      "Ġcracker": 9148,
      "ibly": 9149,
      "Ġdate": 9150,
      "ĠJas": 9151,
      "Ġswapped": 9152,
      "rnie": 9153,
      "Ġmember": 9154,
      "Ġaston": 9155,
      "ets": 9156,
      "ĠPer": 9157,
      "free": 9158,
      "Ġwhine": 9159,
      "Ġrebu": 9160,
      "Ġdoorstep": 9161,
      "Ġsoftened": 9162,
      "Ġdisappearing": 9163,
      "Ġnatur": 9164,
      "Ġquacks": 9165,
      "ĠBro": 9166,
      "Ġlistener": 9167,
[...]
